{
  "version": "1.0",
  "truncation": null,
  "padding": null,
  "added_tokens": [
    {
      "id": 0,
      "content": "[PAD]",
      "single_word": false,
      "lstrip": false,
      "rstrip": false,
      "normalized": false,
      "special": true
    },
    {
      "id": 1,
      "content": "[UNK]",
      "single_word": false,
      "lstrip": false,
      "rstrip": false,
      "normalized": false,
      "special": true
    },
    {
      "id": 2,
      "content": "[CLS]",
      "single_word": false,
      "lstrip": false,
      "rstrip": false,
      "normalized": false,
      "special": true
    },
    {
      "id": 3,
      "content": "[SEP]",
      "single_word": false,
      "lstrip": false,
      "rstrip": false,
      "normalized": false,
      "special": true
    },
    {
      "id": 4,
      "content": "[MASK]",
      "single_word": false,
      "lstrip": false,
      "rstrip": false,
      "normalized": false,
      "special": true
    }
  ],
  "normalizer": {
    "type": "BertNormalizer",
    "clean_text": true,
    "handle_chinese_chars": true,
    "strip_accents": null,
    "lowercase": true
  },
  "pre_tokenizer": {
    "type": "BertPreTokenizer"
  },
  "post_processor": {
    "type": "TemplateProcessing",
    "single": [
      {
        "SpecialToken": {
          "id": "[CLS]",
          "type_id": 0
        }
      },
      {
        "Sequence": {
          "id": "A",
          "type_id": 0
        }
      },
      {
        "SpecialToken": {
          "id": "[SEP]",
          "type_id": 0
        }
      }
    ],
    "pair": [
      {
        "SpecialToken": {
          "id": "[CLS]",
          "type_id": 0
        }
      },
      {
        "Sequence": {
          "id": "A",
          "type_id": 0
        }
      },
      {
        "SpecialToken": {
          "id": "[SEP]",
          "type_id": 0
        }
      },
      {
        "Sequence": {
          "id": "B",
          "type_id": 1
        }
      },
      {
        "SpecialToken": {
          "id": "[SEP]",
          "type_id": 1
        }
      }
    ],
    "special_tokens": {
      "[CLS]": {
        "id": "[CLS]",
        "ids": [
          2
        ],
        "tokens": [
          "[CLS]"
        ]
      },
      "[SEP]": {
        "id": "[SEP]",
        "ids": [
          3
        ],
        "tokens": [
          "[SEP]"
        ]
      }
    }
  },
  "decoder": {
    "type": "WordPiece",
    "prefix": "##",
    "cleanup": true
  },
  "model": {
    "type": "WordPiece",
    "unk_token": "[UNK]",
    "continuing_subword_prefix": "##",
    "max_input_chars_per_word": 100,
    "vocab": {
      "[PAD]": 0,
      "[UNK]": 1,
      "[CLS]": 2,
      "[SEP]": 3,
      "[MASK]": 4,
      "!": 5,
      "\"": 6,
      "#": 7,
      "$": 8,
      "%": 9,
      "&": 10,
      "'": 11,
      "(": 12,
      ")": 13,
      "*": 14,
      "+": 15,
      ",": 16,
      "-": 17,
      ".": 18,
      "/": 19,
      "0": 20,
      "1": 21,
      "2": 22,
      "3": 23,
      "4": 24,
      "5": 25,
      "6": 26,
      "7": 27,
      "8": 28,
      "9": 29,
      ":": 30,
      ";": 31,
      "<": 32,
      "=": 33,
      ">": 34,
      "?": 35,
      "@": 36,
      "[": 37,
      "\\": 38,
      "]": 39,
      "^": 40,
      "_": 41,
      "`": 42,
      "a": 43,
      "b": 44,
      "c": 45,
      "d": 46,
      "e": 47,
      "f": 48,
      "g": 49,
      "h": 50,
      "i": 51,
      "j": 52,
      "k": 53,
      "l": 54,
      "m": 55,
      "n": 56,
      "o": 57,
      "p": 58,
      "q": 59,
      "r": 60,
      "s": 61,
      "t": 62,
      "u": 63,
      "v": 64,
      "w": 65,
      "x": 66,
      "y": 67,
      "z": 68,
      "{": 69,
      "|": 70,
      "}": 71,
      "~": 72,
      "¡": 73,
      "¢": 74,
      "£": 75,
      "¤": 76,
      "¥": 77,
      "¦": 78,
      "§": 79,
      "¨": 80,
      "©": 81,
      "ª": 82,
      "«": 83,
      "¬": 84,
      "®": 85,
      "¯": 86,
      "°": 87,
      "±": 88,
      "²": 89,
      "³": 90,
      "´": 91,
      "µ": 92,
      "¶": 93,
      "·": 94,
      "¸": 95,
      "¹": 96,
      "º": 97,
      "»": 98,
      "¼": 99,
      "½": 100,
      "¾": 101,
      "¿": 102,
      "×": 103,
      "ß": 104,
      "æ": 105,
      "ð": 106,
      "÷": 107,
      "ø": 108,
      "þ": 109,
      "ł": 110,
      "œ": 111,
      "ʺ": 112,
      "ʻ": 113,
      "ˆ": 114,
      "ˇ": 115,
      "˙": 116,
      "˜": 117,
      "α": 118,
      "β": 119,
      "ο": 120,
      "ρ": 121,
      "υ": 122,
      "а": 123,
      "б": 124,
      "в": 125,
      "г": 126,
      "д": 127,
      "е": 128,
      "ж": 129,
      "з": 130,
      "и": 131,
      "к": 132,
      "л": 133,
      "м": 134,
      "н": 135,
      "о": 136,
      "п": 137,
      "р": 138,
      "с": 139,
      "т": 140,
      "у": 141,
      "ф": 142,
      "х": 143,
      "ц": 144,
      "ч": 145,
      "ш": 146,
      "щ": 147,
      "ъ": 148,
      "ы": 149,
      "ь": 150,
      "э": 151,
      "ю": 152,
      "я": 153,
      "є": 154,
      "і": 155,
      "ա": 156,
      "բ": 157,
      "գ": 158,
      "ե": 159,
      "թ": 160,
      "ի": 161,
      "ծ": 162,
      "կ": 163,
      "հ": 164,
      "մ": 165,
      "յ": 166,
      "ն": 167,
      "ո": 168,
      "ս": 169,
      "ր": 170,
      "ւ": 171,
      "օ": 172,
      "և": 173,
      "א": 174,
      "ב": 175,
      "ג": 176,
      "ד": 177,
      "ה": 178,
      "ו": 179,
      "ח": 180,
      "ט": 181,
      "י": 182,
      "ך": 183,
      "כ": 184,
      "ל": 185,
      "ם": 186,
      "מ": 187,
      "ן": 188,
      "נ": 189,
      "ס": 190,
      "ע": 191,
      "פ": 192,
      "ק": 193,
      "ר": 194,
      "ש": 195,
      "ת": 196,
      "ء": 197,
      "ا": 198,
      "ب": 199,
      "ة": 200,
      "ت": 201,
      "ج": 202,
      "ح": 203,
      "خ": 204,
      "د": 205,
      "ذ": 206,
      "ر": 207,
      "ز": 208,
      "س": 209,
      "ش": 210,
      "ص": 211,
      "ض": 212,
      "ط": 213,
      "ع": 214,
      "غ": 215,
      "ف": 216,
      "ق": 217,
      "ك": 218,
      "ل": 219,
      "م": 220,
      "ن": 221,
      "ه": 222,
      "و": 223,
      "ى": 224,
      "ي": 225,
      "ກ": 226,
      "ດ": 227,
      "ທ": 228,
      "ນ": 229,
      "ມ": 230,
      "າ": 231,
      "ა": 232,
      "დ": 233,
      "ი": 234,
      "ლ": 235,
      "მ": 236,
      "ო": 237,
      "ს": 238,
      "უ": 239,
      "ᄀ": 240,
      "ᄁ": 241,
      "ᄂ": 242,
      "ᄃ": 243,
      "ᄅ": 244,
      "ᄆ": 245,
      "ᄇ": 246,
      "ᄈ": 247,
      "ᄉ": 248,
      "ᄊ": 249,
      "ᄋ": 250,
      "ᄌ": 251,
      "ᄍ": 252,
      "ᄎ": 253,
      "ᄏ": 254,
      "ᄐ": 255,
      "ᄑ": 256,
      "ᄒ": 257,
      "ᅡ": 258,
      "ᅢ": 259,
      "ᅣ": 260,
      "ᅥ": 261,
      "ᅦ": 262,
      "ᅧ": 263,
      "ᅨ": 264,
      "ᅩ": 265,
      "ᅪ": 266,
      "ᅬ": 267,
      "ᅭ": 268,
      "ᅮ": 269,
      "ᅱ": 270,
      "ᅳ": 271,
      "ᅴ": 272,
      "ᅵ": 273,
      "ᆨ": 274,
      "ᆫ": 275,
      "ᆯ": 276,
      "ᆷ": 277,
      "ᆼ": 278,
      "ᇁ": 279,
      "‐": 280,
      "‑": 281,
      "–": 282,
      "—": 283,
      "―": 284,
      "‘": 285,
      "’": 286,
      "‚": 287,
      "“": 288,
      "”": 289,
      "„": 290,
      "†": 291,
      "‡": 292,
      "•": 293,
      "…": 294,
      "‰": 295,
      "′": 296,
      "″": 297,
      "‹": 298,
      "›": 299,
      "⁴": 300,
      "⁶": 301,
      "€": 302,
      "₴": 303,
      "₹": 304,
      "™": 305,
      "←": 306,
      "↑": 307,
      "→": 308,
      "↓": 309,
      "↔": 310,
      "−": 311,
      "∞": 312,
      "∟": 313,
      "≤": 314,
      "≥": 315,
      "─": 316,
      "│": 317,
      "┌": 318,
      "└": 319,
      "├": 320,
      "╠": 321,
      "╬": 322,
      "■": 323,
      "▪": 324,
      "►": 325,
      "▼": 326,
      "◊": 327,
      "○": 328,
      "◘": 329,
      "◙": 330,
      "◦": 331,
      "☺": 332,
      "☻": 333,
      "☼": 334,
      "♀": 335,
      "♠": 336,
      "♥": 337,
      "♦": 338,
      "♪": 339,
      "➊": 340,
      "➋": 341,
      "➌": 342,
      "➍": 343,
      "➎": 344,
      "➔": 345,
      "⬭": 346,
      "⻓": 347,
      "⻰": 348,
      "⼤": 349,
      "⼼": 350,
      "⽅": 351,
      "、": 352,
      "。": 353,
      "「": 354,
      "」": 355,
      "い": 356,
      "し": 357,
      "た": 358,
      "て": 359,
      "と": 360,
      "に": 361,
      "の": 362,
      "ひ": 363,
      "ま": 364,
      "み": 365,
      "を": 366,
      "ィ": 367,
      "イ": 368,
      "ウ": 369,
      "カ": 370,
      "ク": 371,
      "サ": 372,
      "シ": 373,
      "セ": 374,
      "テ": 375,
      "ト": 376,
      "ハ": 377,
      "フ": 378,
      "ヘ": 379,
      "ホ": 380,
      "ム": 381,
      "ラ": 382,
      "ル": 383,
      "レ": 384,
      "ン": 385,
      "ー": 386,
      "一": 387,
      "三": 388,
      "上": 389,
      "下": 390,
      "不": 391,
      "与": 392,
      "且": 393,
      "世": 394,
      "业": 395,
      "东": 396,
      "个": 397,
      "中": 398,
      "为": 399,
      "久": 400,
      "之": 401,
      "乌": 402,
      "也": 403,
      "乱": 404,
      "了": 405,
      "争": 406,
      "事": 407,
      "二": 408,
      "于": 409,
      "云": 410,
      "互": 411,
      "交": 412,
      "产": 413,
      "京": 414,
      "亭": 415,
      "亮": 416,
      "人": 417,
      "今": 418,
      "从": 419,
      "仔": 420,
      "他": 421,
      "代": 422,
      "令": 423,
      "以": 424,
      "们": 425,
      "件": 426,
      "份": 427,
      "仿": 428,
      "会": 429,
      "余": 430,
      "作": 431,
      "佢": 432,
      "使": 433,
      "依": 434,
      "信": 435,
      "個": 436,
      "候": 437,
      "值": 438,
      "做": 439,
      "停": 440,
      "備": 441,
      "允": 442,
      "兄": 443,
      "先": 444,
      "光": 445,
      "免": 446,
      "党": 447,
      "入": 448,
      "全": 449,
      "公": 450,
      "共": 451,
      "关": 452,
      "兵": 453,
      "其": 454,
      "具": 455,
      "册": 456,
      "写": 457,
      "军": 458,
      "冬": 459,
      "冰": 460,
      "出": 461,
      "击": 462,
      "函": 463,
      "刀": 464,
      "分": 465,
      "刘": 466,
      "初": 467,
      "删": 468,
      "利": 469,
      "制": 470,
      "前": 471,
      "办": 472,
      "加": 473,
      "务": 474,
      "动": 475,
      "助": 476,
      "劲": 477,
      "勢": 478,
      "勤": 479,
      "包": 480,
      "化": 481,
      "北": 482,
      "区": 483,
      "华": 484,
      "南": 485,
      "博": 486,
      "占": 487,
      "卫": 488,
      "厅": 489,
      "历": 490,
      "厦": 491,
      "去": 492,
      "参": 493,
      "叉": 494,
      "及": 495,
      "发": 496,
      "取": 497,
      "受": 498,
      "只": 499,
      "召": 500,
      "台": 501,
      "史": 502,
      "号": 503,
      "司": 504,
      "同": 505,
      "名": 506,
      "后": 507,
      "吴": 508,
      "吸": 509,
      "吻": 510,
      "告": 511,
      "员": 512,
      "周": 513,
      "和": 514,
      "咨": 515,
      "哈": 516,
      "員": 517,
      "商": 518,
      "單": 519,
      "器": 520,
      "团": 521,
      "国": 522,
      "图": 523,
      "國": 524,
      "在": 525,
      "地": 526,
      "址": 527,
      "坑": 528,
      "坛": 529,
      "域": 530,
      "報": 531,
      "增": 532,
      "壳": 533,
      "处": 534,
      "多": 535,
      "夜": 536,
      "大": 537,
      "天": 538,
      "太": 539,
      "央": 540,
      "奶": 541,
      "好": 542,
      "如": 543,
      "妮": 544,
      "始": 545,
      "委": 546,
      "子": 547,
      "存": 548,
      "学": 549,
      "安": 550,
      "官": 551,
      "实": 552,
      "客": 553,
      "宣": 554,
      "室": 555,
      "害": 556,
      "家": 557,
      "宿": 558,
      "密": 559,
      "寒": 560,
      "察": 561,
      "實": 562,
      "对": 563,
      "小": 564,
      "少": 565,
      "尔": 566,
      "尖": 567,
      "尘": 568,
      "尾": 569,
      "局": 570,
      "展": 571,
      "峰": 572,
      "州": 573,
      "工": 574,
      "已": 575,
      "巴": 576,
      "市": 577,
      "布": 578,
      "常": 579,
      "平": 580,
      "年": 581,
      "并": 582,
      "幹": 583,
      "序": 584,
      "府": 585,
      "度": 586,
      "建": 587,
      "开": 588,
      "异": 589,
      "弄": 590,
      "弟": 591,
      "张": 592,
      "强": 593,
      "当": 594,
      "录": 595,
      "形": 596,
      "彭": 597,
      "後": 598,
      "微": 599,
      "德": 600,
      "心": 601,
      "応": 602,
      "忠": 603,
      "念": 604,
      "态": 605,
      "思": 606,
      "总": 607,
      "恐": 608,
      "息": 609,
      "恶": 610,
      "您": 611,
      "情": 612,
      "意": 613,
      "感": 614,
      "慧": 615,
      "懂": 616,
      "成": 617,
      "我": 618,
      "战": 619,
      "截": 620,
      "戰": 621,
      "打": 622,
      "技": 623,
      "抑": 624,
      "抗": 625,
      "报": 626,
      "抵": 627,
      "拍": 628,
      "招": 629,
      "拡": 630,
      "持": 631,
      "捉": 632,
      "捐": 633,
      "捕": 634,
      "换": 635,
      "据": 636,
      "排": 637,
      "接": 638,
      "控": 639,
      "推": 640,
      "提": 641,
      "援": 642,
      "撃": 643,
      "擊": 644,
      "操": 645,
      "支": 646,
      "攻": 647,
      "放": 648,
      "政": 649,
      "效": 650,
      "教": 651,
      "文": 652,
      "斌": 653,
      "料": 654,
      "新": 655,
      "於": 656,
      "日": 657,
      "早": 658,
      "旭": 659,
      "时": 660,
      "明": 661,
      "星": 662,
      "春": 663,
      "是": 664,
      "显": 665,
      "更": 666,
      "書": 667,
      "最": 668,
      "會": 669,
      "月": 670,
      "有": 671,
      "服": 672,
      "期": 673,
      "木": 674,
      "本": 675,
      "术": 676,
      "机": 677,
      "杀": 678,
      "李": 679,
      "村": 680,
      "東": 681,
      "构": 682,
      "析": 683,
      "枭": 684,
      "某": 685,
      "染": 686,
      "查": 687,
      "柴": 688,
      "样": 689,
      "根": 690,
      "案": 691,
      "桥": 692,
      "梅": 693,
      "楠": 694,
      "楼": 695,
      "標": 696,
      "模": 697,
      "機": 698,
      "次": 699,
      "款": 700,
      "止": 701,
      "正": 702,
      "此": 703,
      "殊": 704,
      "每": 705,
      "民": 706,
      "水": 707,
      "江": 708,
      "汪": 709,
      "河": 710,
      "法": 711,
      "泥": 712,
      "注": 713,
      "泰": 714,
      "洋": 715,
      "津": 716,
      "派": 717,
      "测": 718,
      "浏": 719,
      "浦": 720,
      "浪": 721,
      "海": 722,
      "清": 723,
      "渡": 724,
      "測": 725,
      "港": 726,
      "源": 727,
      "溯": 728,
      "滨": 729,
      "漏": 730,
      "漫": 731,
      "潇": 732,
      "灣": 733,
      "灰": 734,
      "然": 735,
      "照": 736,
      "爱": 737,
      "片": 738,
      "版": 739,
      "牙": 740,
      "特": 741,
      "狼": 742,
      "猪": 743,
      "王": 744,
      "现": 745,
      "球": 746,
      "理": 747,
      "琪": 748,
      "瓦": 749,
      "生": 750,
      "用": 751,
      "田": 752,
      "番": 753,
      "疆": 754,
      "発": 755,
      "登": 756,
      "發": 757,
      "白": 758,
      "的": 759,
      "目": 760,
      "相": 761,
      "省": 762,
      "県": 763,
      "眾": 764,
      "知": 765,
      "码": 766,
      "示": 767,
      "福": 768,
      "秀": 769,
      "秋": 770,
      "种": 771,
      "科": 772,
      "称": 773,
      "程": 774,
      "窓": 775,
      "立": 776,
      "站": 777,
      "第": 778,
      "策": 779,
      "简": 780,
      "算": 781,
      "範": 782,
      "籌": 783,
      "粤": 784,
      "系": 785,
      "組": 786,
      "統": 787,
      "網": 788,
      "總": 789,
      "繫": 790,
      "纪": 791,
      "组": 792,
      "织": 793,
      "终": 794,
      "络": 795,
      "统": 796,
      "缩": 797,
      "网": 798,
      "罗": 799,
      "美": 800,
      "群": 801,
      "翔": 802,
      "者": 803,
      "而": 804,
      "聯": 805,
      "聲": 806,
      "肉": 807,
      "能": 808,
      "脫": 809,
      "至": 810,
      "致": 811,
      "舉": 812,
      "舍": 813,
      "花": 814,
      "苏": 815,
      "英": 816,
      "草": 817,
      "获": 818,
      "菜": 819,
      "菠": 820,
      "萌": 821,
      "蔡": 822,
      "處": 823,
      "虞": 824,
      "虽": 825,
      "行": 826,
      "衣": 827,
      "表": 828,
      "被": 829,
      "補": 830,
      "要": 831,
      "規": 832,
      "覧": 833,
      "觀": 834,
      "规": 835,
      "览": 836,
      "解": 837,
      "記": 838,
      "話": 839,
      "說": 840,
      "調": 841,
      "請": 842,
      "論": 843,
      "警": 844,
      "議": 845,
      "變": 846,
      "计": 847,
      "讯": 848,
      "许": 849,
      "论": 850,
      "访": 851,
      "评": 852,
      "询": 853,
      "该": 854,
      "请": 855,
      "调": 856,
      "谋": 857,
      "資": 858,
      "责": 859,
      "贴": 860,
      "贵": 861,
      "费": 862,
      "资": 863,
      "赢": 864,
      "超": 865,
      "趨": 866,
      "跃": 867,
      "跑": 868,
      "路": 869,
      "踪": 870,
      "轮": 871,
      "载": 872,
      "辉": 873,
      "辯": 874,
      "达": 875,
      "过": 876,
      "运": 877,
      "还": 878,
      "这": 879,
      "进": 880,
      "远": 881,
      "连": 882,
      "通": 883,
      "遍": 884,
      "過": 885,
      "選": 886,
      "邀": 887,
      "邮": 888,
      "郁": 889,
      "部": 890,
      "郭": 891,
      "都": 892,
      "酒": 893,
      "重": 894,
      "针": 895,
      "镇": 896,
      "长": 897,
      "關": 898,
      "闪": 899,
      "问": 900,
      "闵": 901,
      "闸": 902,
      "队": 903,
      "防": 904,
      "限": 905,
      "院": 906,
      "除": 907,
      "隐": 908,
      "难": 909,
      "集": 910,
      "雨": 911,
      "雪": 912,
      "電": 913,
      "面": 914,
      "預": 915,
      "題": 916,
      "顾": 917,
      "风": 918,
      "飞": 919,
      "餘": 920,
      "饮": 921,
      "首": 922,
      "马": 923,
      "验": 924,
      "高": 925,
      "魏": 926,
      "鱼": 927,
      "鲁": 928,
      "鸡": 929,
      "黄": 930,
      "黑": 931,
      "點": 932,
      "黨": 933,
      "鼓": 934,
      "齐": 935,
      "龙": 936,
      "ﬀ": 937,
      "ﬁ": 938,
      "ﬂ": 939,
      "ﬃ": 940,
      "ﬄ": 941,
      "ﺄ": 942,
      "ﺈ": 943,
      "ﺋ": 944,
      "ﺎ": 945,
      "ﺑ": 946,
      "ﺒ": 947,
      "ﺔ": 948,
      "ﺖ": 949,
      "ﺗ": 950,
      "ﺘ": 951,
      "ﺚ": 952,
      "ﺟ": 953,
      "ﺠ": 954,
      "ﺣ": 955,
      "ﺤ": 956,
      "ﺧ": 957,
      "ﺨ": 958,
      "ﺪ": 959,
      "ﺬ": 960,
      "ﺮ": 961,
      "ﺲ": 962,
      "ﺴ": 963,
      "ﺷ": 964,
      "ﺸ": 965,
      "ﺻ": 966,
      "ﺼ": 967,
      "ﺾ": 968,
      "ﻀ": 969,
      "ﻂ": 970,
      "ﻄ": 971,
      "ﻊ": 972,
      "ﻋ": 973,
      "ﻌ": 974,
      "ﻓ": 975,
      "ﻔ": 976,
      "ﻗ": 977,
      "ﻘ": 978,
      "ﻚ": 979,
      "ﻛ": 980,
      "ﻜ": 981,
      "ﻞ": 982,
      "ﻟ": 983,
      "ﻠ": 984,
      "ﻢ": 985,
      "ﻣ": 986,
      "ﻤ": 987,
      "ﻦ": 988,
      "ﻧ": 989,
      "ﻨ": 990,
      "ﻮ": 991,
      "ﻰ": 992,
      "ﻲ": 993,
      "ﻹ": 994,
      "ﻻ": 995,
      "ﻼ": 996,
      "（": 997,
      "）": 998,
      "，": 999,
      "／": 1000,
      "：": 1001,
      "＿": 1002,
      "ｓ": 1003,
      "￼": 1004,
      "##o": 1005,
      "##s": 1006,
      "##t": 1007,
      "##m": 1008,
      "##a": 1009,
      "##e": 1010,
      "##r": 1011,
      "##c": 1012,
      "##8": 1013,
      "##u": 1014,
      "##l": 1015,
      "##n": 1016,
      "##h": 1017,
      "##b": 1018,
      "##j": 1019,
      "##f": 1020,
      "##v": 1021,
      "##y": 1022,
      "##5": 1023,
      "##3": 1024,
      "##6": 1025,
      "##9": 1026,
      "##1": 1027,
      "##d": 1028,
      "##i": 1029,
      "##g": 1030,
      "##x": 1031,
      "##k": 1032,
      "##2": 1033,
      "##0": 1034,
      "##7": 1035,
      "##p": 1036,
      "##4": 1037,
      "##¹": 1038,
      "##ø": 1039,
      "##z": 1040,
      "##w": 1041,
      "##ﬂ": 1042,
      "##−": 1043,
      "##×": 1044,
      "##q": 1045,
      "##ر": 1046,
      "##ا": 1047,
      "##ص": 1048,
      "##ن": 1049,
      "##ة": 1050,
      "##ﻟ": 1051,
      "##ﺘ": 1052,
      "##ﻘ": 1053,
      "##ﺪ": 1054,
      "##и": 1055,
      "##с": 1056,
      "##т": 1057,
      "##е": 1058,
      "##м": 1059,
      "##ы": 1060,
      "##ﺈ": 1061,
      "##ﻧ": 1062,
      "##ﻨ": 1063,
      "##ﺎ": 1064,
      "##і": 1065,
      "##ь": 1066,
      "##к": 1067,
      "##о": 1068,
      "##в": 1069,
      "##д": 1070,
      "##а": 1071,
      "##н": 1072,
      "##ل": 1073,
      "##م": 1074,
      "##س": 1075,
      "##ت": 1076,
      "##ج": 1077,
      "##د": 1078,
      "##ﬁ": 1079,
      "##ح": 1080,
      "##б": 1081,
      "##л": 1082,
      "##р": 1083,
      "##ﻦ": 1084,
      "##у": 1085,
      "##®": 1086,
      "##ف": 1087,
      "##ي": 1088,
      "##↓": 1089,
      "##ᅧ": 1090,
      "##ᆼ": 1091,
      "##ᄌ": 1092,
      "##ᅦ": 1093,
      "##€": 1094,
      "##™": 1095,
      "##ᅩ": 1096,
      "##ᄎ": 1097,
      "##ᅡ": 1098,
      "##ᆨ": 1099,
      "##г": 1100,
      "##ч": 1101,
      "##و": 1102,
      "##ж": 1103,
      "##ш": 1104,
      "##ф": 1105,
      "##↑": 1106,
      "##♥": 1107,
      "##з": 1108,
      "##ᅵ": 1109,
      "##ᆯ": 1110,
      "##ᄇ": 1111,
      "##ᆫ": 1112,
      "##щ": 1113,
      "##п": 1114,
      "##ᅢ": 1115,
      "##ᄋ": 1116,
      "##ц": 1117,
      "##²": 1118,
      "##¸": 1119,
      "##¯": 1120,
      "##ᅥ": 1121,
      "##ᄀ": 1122,
      "##ʺ": 1123,
      "##ン": 1124,
      "##ホ": 1125,
      "##シ": 1126,
      "##ウ": 1127,
      "##ム": 1128,
      "##ᅳ": 1129,
      "##ᄅ": 1130,
      "##ᆷ": 1131,
      "##я": 1132,
      "##ﻞ": 1133,
      "##ﻊ": 1134,
      "##ض": 1135,
      "##ᄉ": 1136,
      "##ר": 1137,
      "##ו": 1138,
      "##ן": 1139,
      "##ᄐ": 1140,
      "##ᄏ": 1141,
      "##¦": 1142,
      "##¨": 1143,
      "##ك": 1144,
      "##ب": 1145,
      "##خ": 1146,
      "##±": 1147,
      "##ه": 1148,
      "##´": 1149,
      "##œ": 1150,
      "##˙": 1151,
      "##ﬀ": 1152,
      "##ᄆ": 1153,
      "##ᅮ": 1154,
      "##ع": 1155,
      "##³": 1156,
      "##ذ": 1157,
      "##ﺮ": 1158,
      "##ﻗ": 1159,
      "##ﺤ": 1160,
      "##ﻮ": 1161,
      "##æ": 1162,
      "##ﻤ": 1163,
      "##ﺴ": 1164,
      "##ー": 1165,
      "##テ": 1166,
      "##ィ": 1167,
      "##ל": 1168,
      "##נ": 1169,
      "##ق": 1170,
      "##ד": 1171,
      "##ת": 1172,
      "##ю": 1173,
      "##ש": 1174,
      "##ס": 1175,
      "##י": 1176,
      "##ק": 1177,
      "##ה": 1178,
      "##ﬄ": 1179,
      "##ᅭ": 1180,
      "##ß": 1181,
      "##х": 1182,
      "##ﬃ": 1183,
      "##│": 1184,
      "##ﻌ": 1185,
      "##ﻜ": 1186,
      "##ﻢ": 1187,
      "##ª": 1188,
      "##½": 1189,
      "##˜": 1190,
      "##ﻠ": 1191,
      "##ﺸ": 1192,
      "##ﻣ": 1193,
      "##ﺒ": 1194,
      "##ﺷ": 1195,
      "##°": 1196,
      "##ח": 1197,
      "##כ": 1198,
      "##ա": 1199,
      "##ս": 1200,
      "##ի": 1201,
      "##ն": 1202,
      "##ﻋ": 1203,
      "##ﻼ": 1204,
      "##פ": 1205,
      "##ם": 1206,
      "##ز": 1207,
      "##ᅪ": 1208,
      "##ᄃ": 1209,
      "##غ": 1210,
      "##ˆ": 1211,
      "##ﺋ": 1212,
      "##υ": 1213,
      "##ρ": 1214,
      "##ο": 1215,
      "##β": 1216,
      "##ﻰ": 1217,
      "##¬": 1218,
      "##ր": 1219,
      "##ե": 1220,
      "##─": 1221,
      "##ﻚ": 1222,
      "##¾": 1223,
      "##た": 1224,
      "##↔": 1225,
      "##ش": 1226,
      "##ط": 1227,
      "##ᄂ": 1228,
      "##є": 1229,
      "##╠": 1230,
      "##☺": 1231,
      "##ა": 1232,
      "##ი": 1233,
      "##დ": 1234,
      "##უ": 1235,
      "##მ": 1236,
      "##ლ": 1237,
      "##ო": 1238,
      "##ﺄ": 1239,
      "##☻": 1240,
      "##ﺔ": 1241,
      "##ﺠ": 1242,
      "##◙": 1243,
      "##ᅨ": 1244,
      "##ᄍ": 1245,
      "##þ": 1246,
      "##¤": 1247,
      "##מ": 1248,
      "##¼": 1249,
      "##い": 1250,
      "##て": 1251,
      "##ᄈ": 1252,
      "##ク": 1253,
      "##ラ": 1254,
      "##÷": 1255,
      "##☼": 1256,
      "##イ": 1257,
      "##ト": 1258,
      "##フ": 1259,
      "##レ": 1260,
      "##セ": 1261,
      "##の": 1262,
      "##ﺑ": 1263,
      "##ｓ": 1264,
      "##←": 1265,
      "##э": 1266,
      "##ﻹ": 1267,
      "##ט": 1268,
      "##ע": 1269,
      "##հ": 1270,
      "##ב": 1271,
      "##ﻻ": 1272,
      "##ﻓ": 1273,
      "##ł": 1274,
      "##ء": 1275,
      "##ﻛ": 1276,
      "##º": 1277,
      "##►": 1278,
      "##ᅱ": 1279,
      "##ᅣ": 1280,
      "##⻰": 1281,
      "##ﺖ": 1282,
      "##∟": 1283,
      "##µ": 1284,
      "##¥": 1285,
      "##ﺼ": 1286,
      "##ﺬ": 1287,
      "##א": 1288,
      "##≤": 1289,
      "##ᅴ": 1290,
      "##ﻲ": 1291,
      "##կ": 1292,
      "##ﻔ": 1293,
      "##ﺗ": 1294,
      "##ᇁ": 1295,
      "##♪": 1296,
      "##ᄒ": 1297,
      "##￼": 1298,
      "##ル": 1299,
      "##ъ": 1300,
      "##♠": 1301,
      "##ո": 1302,
      "##ծ": 1303,
      "##ւ": 1304,
      "##թ": 1305,
      "##յ": 1306,
      "##ﺟ": 1307,
      "##サ": 1308,
      "##ハ": 1309,
      "##╬": 1310,
      "##⁴": 1311,
      "##ð": 1312,
      "##©": 1313,
      "##າ": 1314,
      "##ນ": 1315,
      "##ມ": 1316,
      "##ດ": 1317,
      "##ກ": 1318,
      "##ﻀ": 1319,
      "##ま": 1320,
      "##と": 1321,
      "##み": 1322,
      "##ﻂ": 1323,
      "##ﺧ": 1324,
      "##¢": 1325,
      "##ى": 1326,
      "##ﺾ": 1327,
      "##ᄑ": 1328,
      "##ᅬ": 1329,
      "##ᄊ": 1330,
      "##┌": 1331,
      "##£": 1332,
      "##ﻄ": 1333,
      "##ﺨ": 1334,
      "##er": 1335,
      "th": 1336,
      "the": 1337,
      "##in": 1338,
      "##on": 1339,
      "##at": 1340,
      "##ed": 1341,
      "##es": 1342,
      "##or": 1343,
      "in": 1344,
      "##en": 1345,
      "##it": 1346,
      "##ar": 1347,
      "an": 1348,
      "##ec": 1349,
      "##al": 1350,
      "##ion": 1351,
      "to": 1352,
      "##ic": 1353,
      "##an": 1354,
      "##ing": 1355,
      "##ro": 1356,
      "##il": 1357,
      "##is": 1358,
      "and": 1359,
      "of": 1360,
      "##ent": 1361,
      "##ac": 1362,
      "##et": 1363,
      "co": 1364,
      "##as": 1365,
      "##re": 1366,
      "##ers": 1367,
      "##ve": 1368,
      "##st": 1369,
      "##le": 1370,
      "##ation": 1371,
      "##mp": 1372,
      "##ut": 1373,
      "##lo": 1374,
      "##ect": 1375,
      "##ul": 1376,
      "us": 1377,
      "##ly": 1378,
      "re": 1379,
      "be": 1380,
      "20": 1381,
      "##ur": 1382,
      "##ack": 1383,
      "con": 1384,
      "##ab": 1385,
      "is": 1386,
      "##un": 1387,
      "##ig": 1388,
      "ex": 1389,
      "at": 1390,
      "##ot": 1391,
      "##ity": 1392,
      "201": 1393,
      "##us": 1394,
      "##ver": 1395,
      "##am": 1396,
      "on": 1397,
      "for": 1398,
      "##for": 1399,
      "or": 1400,
      "##ri": 1401,
      "##ad": 1402,
      "##ow": 1403,
      "that": 1404,
      "##ess": 1405,
      "st": 1406,
      "wh": 1407,
      "##ir": 1408,
      "##ct": 1409,
      "##id": 1410,
      "##ain": 1411,
      "##el": 1412,
      "att": 1413,
      "as": 1414,
      "pro": 1415,
      "##if": 1416,
      "##pt": 1417,
      "al": 1418,
      "##ag": 1419,
      "##ter": 1420,
      "##ith": 1421,
      "##ol": 1422,
      "##em": 1423,
      "we": 1424,
      "this": 1425,
      "ser": 1426,
      "##ts": 1427,
      "##im": 1428,
      "##om": 1429,
      "with": 1430,
      "attack": 1431,
      "by": 1432,
      "##ate": 1433,
      "##ia": 1434,
      "un": 1435,
      "##ch": 1436,
      "ot": 1437,
      "cve": 1438,
      "##ce": 1439,
      "com": 1440,
      "##are": 1441,
      "##ay": 1442,
      "fil": 1443,
      "##pp": 1444,
      "comp": 1445,
      "ad": 1446,
      "##rom": 1447,
      "en": 1448,
      "cont": 1449,
      "##ws": 1450,
      "##abil": 1451,
      "##ment": 1452,
      "##ware": 1453,
      "##oc": 1454,
      "##de": 1455,
      "##ist": 1456,
      "##ner": 1457,
      "##ial": 1458,
      "##ary": 1459,
      "##se": 1460,
      "##ated": 1461,
      "##and": 1462,
      "mal": 1463,
      "it": 1464,
      "##nerabil": 1465,
      "not": 1466,
      "##est": 1467,
      "sp": 1468,
      "via": 1469,
      "##fore": 1470,
      "before": 1471,
      "ch": 1472,
      "##ies": 1473,
      "mo": 1474,
      "su": 1475,
      "vul": 1476,
      "##per": 1477,
      "##her": 1478,
      "de": 1479,
      "are": 1480,
      "from": 1481,
      "##ft": 1482,
      "vulnerabil": 1483,
      "##ail": 1484,
      "##cc": 1485,
      "##form": 1486,
      "ck": 1487,
      "comm": 1488,
      "ote": 1489,
      "ows": 1490,
      "serv": 1491,
      "##age": 1492,
      "##ort": 1493,
      "sy": 1494,
      "##ich": 1495,
      "##so": 1496,
      "sh": 1497,
      "res": 1498,
      "##ber": 1499,
      "##ug": 1500,
      "##ave": 1501,
      "ca": 1502,
      "##ear": 1503,
      "##ere": 1504,
      "which": 1505,
      "##ive": 1506,
      "exp": 1507,
      "ckers": 1508,
      "web": 1509,
      "##ors": 1510,
      "##ecut": 1511,
      "act": 1512,
      "file": 1513,
      "##ice": 1514,
      "##iv": 1515,
      "cr": 1516,
      "##low": 1517,
      "##arg": 1518,
      "malware": 1519,
      "##ke": 1520,
      "used": 1521,
      "app": 1522,
      "##ork": 1523,
      "##ame": 1524,
      "sec": 1525,
      "tr": 1526,
      "##qu": 1527,
      "##ss": 1528,
      "int": 1529,
      "have": 1530,
      "sc": 1531,
      "##ind": 1532,
      "se": 1533,
      "dat": 1534,
      "po": 1535,
      "##ure": 1536,
      "was": 1537,
      "vulnerability": 1538,
      "##own": 1539,
      "bit": 1540,
      "##all": 1541,
      "par": 1542,
      "##stem": 1543,
      "##io": 1544,
      "so": 1545,
      "##ign": 1546,
      "code": 1547,
      "##uld": 1548,
      "##ied": 1549,
      "system": 1550,
      "lo": 1551,
      "##ations": 1552,
      "##ions": 1553,
      "##fer": 1554,
      "inter": 1555,
      "##ry": 1556,
      "##arget": 1557,
      "##ite": 1558,
      "##rary": 1559,
      "target": 1560,
      "##lic": 1561,
      "##end": 1562,
      "net": 1563,
      "##du": 1564,
      "inform": 1565,
      "acc": 1566,
      "##sp": 1567,
      "ph": 1568,
      "##up": 1569,
      "has": 1570,
      "inc": 1571,
      "information": 1572,
      "##act": 1573,
      "add": 1574,
      "##ill": 1575,
      "sa": 1576,
      "##able": 1577,
      "00": 1578,
      "##iz": 1579,
      "##oun": 1580,
      "ne": 1581,
      "##ib": 1582,
      "data": 1583,
      "##ified": 1584,
      "##igh": 1585,
      "##urity": 1586,
      "##ell": 1587,
      "##um": 1588,
      "bitrary": 1589,
      "##ll": 1590,
      "le": 1591,
      "##ant": 1592,
      "##ore": 1593,
      "ob": 1594,
      "server": 1595,
      "##ru": 1596,
      "##ows": 1597,
      "up": 1598,
      "##ip": 1599,
      "##work": 1600,
      "security": 1601,
      "##ious": 1602,
      "dis": 1603,
      "##ord": 1604,
      "user": 1605,
      "oper": 1606,
      "##ud": 1607,
      "##fect": 1608,
      "10": 1609,
      "##th": 1610,
      "##load": 1611,
      "these": 1612,
      "2012": 1613,
      "##ach": 1614,
      "##co": 1615,
      "wind": 1616,
      "##li": 1617,
      "em": 1618,
      "service": 1619,
      "##ical": 1620,
      "users": 1621,
      "##ile": 1622,
      "##ript": 1623,
      "##ject": 1624,
      "cy": 1625,
      "##ugh": 1626,
      "rep": 1627,
      "af": 1628,
      "inst": 1629,
      "pl": 1630,
      "##ence": 1631,
      "do": 1632,
      "go": 1633,
      "##ass": 1634,
      "also": 1635,
      "##ress": 1636,
      "##ine": 1637,
      "2010": 1638,
      "other": 1639,
      "##ict": 1640,
      "ar": 1641,
      "gro": 1642,
      "##loit": 1643,
      "command": 1644,
      "thre": 1645,
      "##ast": 1646,
      "windows": 1647,
      "ht": 1648,
      "ab": 1649,
      "##use": 1650,
      "##ust": 1651,
      "rec": 1652,
      "##ult": 1653,
      "exploit": 1654,
      "##ities": 1655,
      "network": 1656,
      "id": 1657,
      "imp": 1658,
      "man": 1659,
      "2011": 1660,
      "can": 1661,
      "conf": 1662,
      "group": 1663,
      "det": 1664,
      "##ang": 1665,
      "##ecute": 1666,
      "attacks": 1667,
      "##ak": 1668,
      "##ap": 1669,
      "bas": 1670,
      "files": 1671,
      "cyber": 1672,
      "fun": 1673,
      "its": 1674,
      "##ey": 1675,
      "reg": 1676,
      "##irect": 1677,
      "tim": 1678,
      "ho": 1679,
      "##der": 1680,
      "##ens": 1681,
      "their": 1682,
      "over": 1683,
      "were": 1684,
      "been": 1685,
      "##out": 1686,
      "##ome": 1687,
      "##ction": 1688,
      "script": 1689,
      "use": 1690,
      "##ecified": 1691,
      "##ian": 1692,
      "##ish": 1693,
      "rel": 1694,
      "##ub": 1695,
      "##net": 1696,
      "##min": 1697,
      "##ory": 1698,
      "str": 1699,
      "doc": 1700,
      "one": 1701,
      "##ue": 1702,
      "fol": 1703,
      "##ans": 1704,
      "ag": 1705,
      "could": 1706,
      "##ech": 1707,
      "they": 1708,
      "vect": 1709,
      "contro": 1710,
      "##ument": 1711,
      "dec": 1712,
      "using": 1713,
      "execut": 1714,
      "##ates": 1715,
      "unsp": 1716,
      "unspecified": 1717,
      "xecute": 1718,
      "##av": 1719,
      "all": 1720,
      "##cess": 1721,
      "##nown": 1722,
      "##ong": 1723,
      "##ard": 1724,
      "pri": 1725,
      "lin": 1726,
      "contain": 1727,
      "##ual": 1728,
      "back": 1729,
      "##ved": 1730,
      "##ok": 1731,
      "11": 1732,
      "##icro": 1733,
      "##ection": 1734,
      "##tain": 1735,
      "incl": 1736,
      "attacker": 1737,
      "##aft": 1738,
      "##earch": 1739,
      "micro": 1740,
      "direct": 1741,
      "##ific": 1742,
      "vectors": 1743,
      "email": 1744,
      "##ide": 1745,
      "##rypt": 1746,
      "ev": 1747,
      "if": 1748,
      "##od": 1749,
      "spec": 1750,
      "function": 1751,
      "##ase": 1752,
      "##os": 1753,
      "dif": 1754,
      "threat": 1755,
      "part": 1756,
      "pr": 1757,
      "craft": 1758,
      "ind": 1759,
      "##rough": 1760,
      "##tp": 1761,
      "crafted": 1762,
      "##ition": 1763,
      "den": 1764,
      "vict": 1765,
      "##00": 1766,
      "through": 1767,
      "he": 1768,
      "document": 1769,
      "victim": 1770,
      "##ie": 1771,
      "dom": 1772,
      "##gr": 1773,
      "will": 1774,
      "php": 1775,
      "rem": 1776,
      "##les": 1777,
      "cause": 1778,
      "some": 1779,
      "fi": 1780,
      "##ys": 1781,
      "when": 1782,
      "address": 1783,
      "per": 1784,
      "key": 1785,
      "te": 1786,
      "but": 1787,
      "200": 1788,
      "fir": 1789,
      "##mple": 1790,
      "inv": 1791,
      "##ould": 1792,
      "run": 1793,
      "denial": 1794,
      "##ents": 1795,
      "out": 1796,
      "log": 1797,
      "may": 1798,
      "anal": 1799,
      "vers": 1800,
      "access": 1801,
      "tech": 1802,
      "##soft": 1803,
      "domain": 1804,
      "requ": 1805,
      "tw": 1806,
      "des": 1807,
      "2013": 1808,
      "new": 1809,
      "differ": 1810,
      "##log": 1811,
      "based": 1812,
      "tool": 1813,
      "any": 1814,
      "cre": 1815,
      "camp": 1816,
      "attackers": 1817,
      "pat": 1818,
      "control": 1819,
      "##aign": 1820,
      "microsoft": 1821,
      "loc": 1822,
      "var": 1823,
      "campaign": 1824,
      "follow": 1825,
      "related": 1826,
      "ident": 1827,
      "dll": 1828,
      "time": 1829,
      "##our": 1830,
      "##int": 1831,
      "##ential": 1832,
      "techn": 1833,
      "prov": 1834,
      "##ound": 1835,
      "val": 1836,
      "##art": 1837,
      "inject": 1838,
      "report": 1839,
      "##rib": 1840,
      "org": 1841,
      "how": 1842,
      "does": 1843,
      "##ks": 1844,
      "##op": 1845,
      "li": 1846,
      "##ight": 1847,
      "pre": 1848,
      "##yp": 1849,
      "more": 1850,
      "##xt": 1851,
      "##icious": 1852,
      "allow": 1853,
      "comput": 1854,
      "ip": 1855,
      "ass": 1856,
      "##uss": 1857,
      "##ace": 1858,
      "down": 1859,
      "webs": 1860,
      "site": 1861,
      "mess": 1862,
      "##ake": 1863,
      "no": 1864,
      "def": 1865,
      "conn": 1866,
      "infect": 1867,
      "pay": 1868,
      "inf": 1869,
      "##ash": 1870,
      "host": 1871,
      "process": 1872,
      "##ml": 1873,
      "##lication": 1874,
      "different": 1875,
      "param": 1876,
      "upd": 1877,
      "who": 1878,
      "##ruct": 1879,
      "##uth": 1880,
      "set": 1881,
      "12": 1882,
      "http": 1883,
      "op": 1884,
      "pub": 1885,
      "paramet": 1886,
      "poss": 1887,
      "qu": 1888,
      "num": 1889,
      "off": 1890,
      "like": 1891,
      "malicious": 1892,
      "than": 1893,
      "config": 1894,
      "includ": 1895,
      "compon": 1896,
      "comprom": 1897,
      "compromis": 1898,
      "name": 1899,
      "exe": 1900,
      "install": 1901,
      "possib": 1902,
      "enc": 1903,
      "research": 1904,
      "same": 1905,
      "##ser": 1906,
      "fe": 1907,
      "such": 1908,
      "##ating": 1909,
      "cl": 1910,
      "commun": 1911,
      "activ": 1912,
      "##ices": 1913,
      "into": 1914,
      "call": 1915,
      "first": 1916,
      "##pon": 1917,
      "following": 1918,
      "apt": 1919,
      "cor": 1920,
      "bu": 1921,
      "mult": 1922,
      "after": 1923,
      "mod": 1924,
      "cer": 1925,
      "them": 1926,
      "internet": 1927,
      "two": 1928,
      "av": 1929,
      "chin": 1930,
      "##ross": 1931,
      "##one": 1932,
      "pass": 1933,
      "priv": 1934,
      "##urr": 1935,
      "hack": 1936,
      "organ": 1937,
      "there": 1938,
      "##ance": 1939,
      "##ected": 1940,
      "##ces": 1941,
      "found": 1942,
      "list": 1943,
      "would": 1944,
      "then": 1945,
      "vulnerabilities": 1946,
      "targeted": 1947,
      "##og": 1948,
      "work": 1949,
      "##32": 1950,
      "russ": 1951,
      "typ": 1952,
      "servers": 1953,
      "##word": 1954,
      "adv": 1955,
      "configur": 1956,
      "encrypt": 1957,
      "del": 1958,
      "prot": 1959,
      "##ff": 1960,
      "proper": 1961,
      "accoun": 1962,
      "##entic": 1963,
      "compan": 1964,
      "bot": 1965,
      "read": 1966,
      "admin": 1967,
      "gen": 1968,
      "sub": 1969,
      "systems": 1970,
      "download": 1971,
      "soft": 1972,
      "parameter": 1973,
      "##ites": 1974,
      "##do": 1975,
      "##duct": 1976,
      "##dule": 1977,
      "mon": 1978,
      "respon": 1979,
      "##ning": 1980,
      "sign": 1981,
      "nam": 1982,
      "##rat": 1983,
      "multip": 1984,
      "communic": 1985,
      "addition": 1986,
      "ext": 1987,
      "affect": 1988,
      "software": 1989,
      "module": 1990,
      "organiz": 1991,
      "string": 1992,
      "prev": 1993,
      "our": 1994,
      "tro": 1995,
      "##pr": 1996,
      "fl": 1997,
      "operation": 1998,
      "##ded": 1999,
      "analys": 2000,
      "open": 2001,
      "##ka": 2002,
      "multiple": 2003,
      "commands": 2004,
      "most": 2005,
      "##ally": 2006,
      "dev": 2007,
      "##known": 2008,
      "dro": 2009,
      "provid": 2010,
      "met": 2011,
      "##ically": 2012,
      "##nel": 2013,
      "again": 2014,
      "unknown": 2015,
      "only": 2016,
      "##vern": 2017,
      "##ql": 2018,
      "dri": 2019,
      "obtain": 2020,
      "appear": 2021,
      "govern": 2022,
      "html": 2023,
      "version": 2024,
      "0x": 2025,
      "component": 2026,
      "##ages": 2027,
      "get": 2028,
      "backdo": 2029,
      "##ishing": 2030,
      "##ever": 2031,
      "number": 2032,
      "ac": 2033,
      "##ructure": 2034,
      "analysis": 2035,
      "government": 2036,
      "dep": 2037,
      "##ful": 2038,
      "hand": 2039,
      "##mples": 2040,
      "content": 2041,
      "pers": 2042,
      "##ify": 2043,
      "##ption": 2044,
      "##ob": 2045,
      "##ger": 2046,
      "link": 2047,
      "aka": 2048,
      "detail": 2049,
      "payload": 2050,
      "##ced": 2051,
      "##ribut": 2052,
      "form": 2053,
      "ste": 2054,
      "about": 2055,
      "##we": 2056,
      "manag": 2057,
      "##ting": 2058,
      "however": 2059,
      "##cal": 2060,
      "update": 2061,
      "cross": 2062,
      "curr": 2063,
      "2014": 2064,
      "gener": 2065,
      "##ently": 2066,
      "##bo": 2067,
      "im": 2068,
      "##lement": 2069,
      "tools": 2070,
      "c2": 2071,
      "##ote": 2072,
      "##ux": 2073,
      "fr": 2074,
      "##iew": 2075,
      "obser": 2076,
      "##uring": 2077,
      "##iqu": 2078,
      "directory": 2079,
      "fin": 2080,
      "cons": 2081,
      "##velo": 2082,
      "properly": 2083,
      "computer": 2084,
      "##lier": 2085,
      "request": 2086,
      "troj": 2087,
      "develo": 2088,
      "password": 2089,
      "bet": 2090,
      "##ose": 2091,
      "##loc": 2092,
      "sever": 2093,
      "known": 2094,
      "while": 2095,
      "##ise": 2096,
      "##ld": 2097,
      "indic": 2098,
      "sql": 2099,
      "supp": 2100,
      "public": 2101,
      "##ms": 2102,
      "pack": 2103,
      "expl": 2104,
      "load": 2105,
      "mem": 2106,
      "samples": 2107,
      "wr": 2108,
      "##ement": 2109,
      "targets": 2110,
      "had": 2111,
      "coun": 2112,
      "##ves": 2113,
      "##ater": 2114,
      "ory": 2115,
      "sim": 2116,
      "##und": 2117,
      "against": 2118,
      "within": 2119,
      "send": 2120,
      "well": 2121,
      "##led": 2122,
      "high": 2123,
      "uth": 2124,
      "remote": 2125,
      "##ustom": 2126,
      "auth": 2127,
      "17": 2128,
      "ur": 2129,
      "pres": 2130,
      "bec": 2131,
      "phishing": 2132,
      "custom": 2133,
      "main": 2134,
      "uthentic": 2135,
      "backdoor": 2136,
      "message": 2137,
      "ul": 2138,
      "##ange": 2139,
      "activity": 2140,
      "me": 2141,
      "pp": 2142,
      "goog": 2143,
      "see": 2144,
      "##ffer": 2145,
      "compromised": 2146,
      "##gram": 2147,
      "##ular": 2148,
      "avail": 2149,
      "pe": 2150,
      "##itt": 2151,
      "scripting": 2152,
      "##iss": 2153,
      "##ays": 2154,
      "fire": 2155,
      "ret": 2156,
      "##ond": 2157,
      "init": 2158,
      "chec": 2159,
      "rat": 2160,
      "during": 2161,
      "ent": 2162,
      "google": 2163,
      "##ially": 2164,
      "configuration": 2165,
      "la": 2166,
      "website": 2167,
      "eng": 2168,
      "##ues": 2169,
      "##ights": 2170,
      "##ince": 2171,
      "kore": 2172,
      "##rast": 2173,
      "many": 2174,
      "##ns": 2175,
      "program": 2176,
      "15": 2177,
      "fre": 2178,
      "##loy": 2179,
      "post": 2180,
      "develop": 2181,
      "intell": 2182,
      "gain": 2183,
      "regist": 2184,
      "mar": 2185,
      "ver": 2186,
      "##ough": 2187,
      "several": 2188,
      "uses": 2189,
      "crash": 2190,
      "##hod": 2191,
      "pplication": 2192,
      "jav": 2193,
      "##ests": 2194,
      "13": 2195,
      "including": 2196,
      "18": 2197,
      "trojan": 2198,
      "##ou": 2199,
      "##cover": 2200,
      "##ccess": 2201,
      "vari": 2202,
      "method": 2203,
      "administ": 2204,
      "note": 2205,
      "pol": 2206,
      "##imate": 2207,
      "##ileg": 2208,
      "observed": 2209,
      "dem": 2210,
      "##ures": 2211,
      "iss": 2212,
      "connect": 2213,
      "14": 2214,
      "16": 2215,
      "##ily": 2216,
      "##ph": 2217,
      "red": 2218,
      "cred": 2219,
      "infrast": 2220,
      "possibly": 2221,
      "dropp": 2222,
      "exa": 2223,
      "##emp": 2224,
      "orac": 2225,
      "year": 2226,
      "success": 2227,
      "oracle": 2228,
      "privileg": 2229,
      "victims": 2230,
      "ocal": 2231,
      "bro": 2232,
      "sour": 2233,
      "active": 2234,
      "contains": 2235,
      "path": 2236,
      "##ween": 2237,
      "between": 2238,
      "xss": 2239,
      "said": 2240,
      "##ries": 2241,
      "##other": 2242,
      "infrastructure": 2243,
      "url": 2244,
      "##let": 2245,
      "##ilar": 2246,
      "##ick": 2247,
      "similar": 2248,
      "bin": 2249,
      "2015": 2250,
      "##ics": 2251,
      "attemp": 2252,
      "19": 2253,
      "am": 2254,
      "##orts": 2255,
      "overf": 2256,
      "leg": 2257,
      "byt": 2258,
      "##ize": 2259,
      "mac": 2260,
      "sent": 2261,
      "infected": 2262,
      "si": 2263,
      "ulnerabil": 2264,
      "sample": 2265,
      "intellig": 2266,
      "rans": 2267,
      "uk": 2268,
      "##read": 2269,
      "ransom": 2270,
      "stor": 2271,
      "vis": 2272,
      "china": 2273,
      "invest": 2274,
      "being": 2275,
      "##als": 2276,
      "cli": 2277,
      "another": 2278,
      "operations": 2279,
      "rights": 2280,
      "interest": 2281,
      "both": 2282,
      "current": 2283,
      "##64": 2284,
      "sm": 2285,
      "you": 2286,
      "russian": 2287,
      "##ational": 2288,
      "##rain": 2289,
      "previous": 2290,
      "##ous": 2291,
      "count": 2292,
      "company": 2293,
      "start": 2294,
      "##bers": 2295,
      "##ade": 2296,
      "inte": 2297,
      "page": 2298,
      "shell": 2299,
      "likely": 2300,
      "win": 2301,
      "##olog": 2302,
      "port": 2303,
      "ap": 2304,
      "min": 2305,
      "##ird": 2306,
      "intelligence": 2307,
      "desc": 2308,
      "##ized": 2309,
      "##lish": 2310,
      "vir": 2311,
      "specific": 2312,
      "##itive": 2313,
      "look": 2314,
      "actors": 2315,
      "explor": 2316,
      "fig": 2317,
      "##eld": 2318,
      "##oci": 2319,
      "cap": 2320,
      "##ee": 2321,
      "second": 2322,
      "what": 2323,
      "impact": 2324,
      "os": 2325,
      "##aff": 2326,
      "details": 2327,
      "##ky": 2328,
      "##ese": 2329,
      "inde": 2330,
      "example": 2331,
      "cert": 2332,
      "ms": 2333,
      "bl": 2334,
      "##enc": 2335,
      "##ists": 2336,
      "coll": 2337,
      "cle": 2338,
      "sens": 2339,
      "##kit": 2340,
      "long": 2341,
      "cop": 2342,
      "ulnerability": 2343,
      "##nal": 2344,
      "services": 2345,
      "successful": 2346,
      "arlier": 2347,
      "25": 2348,
      "clo": 2349,
      "larg": 2350,
      "ir": 2351,
      "wor": 2352,
      "administrat": 2353,
      "##ull": 2354,
      "trans": 2355,
      "disc": 2356,
      "implement": 2357,
      "overflow": 2358,
      "explorer": 2359,
      "ma": 2360,
      "case": 2361,
      "##ible": 2362,
      "dist": 2363,
      "##10": 2364,
      "ker": 2365,
      "##ited": 2366,
      "discover": 2367,
      "value": 2368,
      "encrypted": 2369,
      "organizations": 2370,
      "plug": 2371,
      "investig": 2372,
      "accounts": 2373,
      "mach": 2374,
      "war": 2375,
      "ant": 2376,
      "corru": 2377,
      "where": 2378,
      "el": 2379,
      "##str": 2380,
      "##obe": 2381,
      "rece": 2382,
      "##wn": 2383,
      "##pl": 2384,
      "beh": 2385,
      "apple": 2386,
      "##akes": 2387,
      "documents": 2388,
      "product": 2389,
      "real": 2390,
      "execution": 2391,
      "##tr": 2392,
      "domains": 2393,
      "each": 2394,
      "ukrain": 2395,
      "##ire": 2396,
      "##15": 2397,
      "##oot": 2398,
      "##line": 2399,
      "adobe": 2400,
      "##igin": 2401,
      "pow": 2402,
      "2016": 2403,
      "##ility": 2404,
      "24": 2405,
      "kernel": 2406,
      "origin": 2407,
      "ter": 2408,
      "esp": 2409,
      "common": 2410,
      "##con": 2411,
      "##ps": 2412,
      "able": 2413,
      "##ild": 2414,
      "state": 2415,
      "##ident": 2416,
      "##elf": 2417,
      "order": 2418,
      "##ases": 2419,
      "sensitive": 2420,
      "associ": 2421,
      "credential": 2422,
      "decrypt": 2423,
      "##ost": 2424,
      "ef": 2425,
      "ut": 2426,
      "##king": 2427,
      "team": 2428,
      "lib": 2429,
      "##ature": 2430,
      "##ix": 2431,
      "er": 2432,
      "object": 2433,
      "##vers": 2434,
      "buffer": 2435,
      "way": 2436,
      "##ments": 2437,
      "uthenticated": 2438,
      "perform": 2439,
      "identified": 2440,
      "versions": 2441,
      "##orth": 2442,
      "client": 2443,
      "targeting": 2444,
      "##ude": 2445,
      "delet": 2446,
      "##ique": 2447,
      "rest": 2448,
      "figure": 2449,
      "resour": 2450,
      "response": 2451,
      "legit": 2452,
      "char": 2453,
      "running": 2454,
      "java": 2455,
      "word": 2456,
      "websites": 2457,
      "##sa": 2458,
      "view": 2459,
      "invol": 2460,
      "additional": 2461,
      "prof": 2462,
      "med": 2463,
      "source": 2464,
      "rele": 2465,
      "networks": 2466,
      "certain": 2467,
      "corruption": 2468,
      "##pass": 2469,
      "initial": 2470,
      "##ayer": 2471,
      "even": 2472,
      "emp": 2473,
      "soc": 2474,
      "end": 2475,
      "available": 2476,
      "aut": 2477,
      "ear": 2478,
      "##ators": 2479,
      "under": 2480,
      "##ause": 2481,
      "analy": 2482,
      "22": 2483,
      "mail": 2484,
      "##itical": 2485,
      "names": 2486,
      "campaigns": 2487,
      "##idd": 2488,
      "since": 2489,
      "##ime": 2490,
      "search": 2491,
      "##ister": 2492,
      "##ually": 2493,
      "cs": 2494,
      "application": 2495,
      "##12": 2496,
      "car": 2497,
      "##ext": 2498,
      "legitimate": 2499,
      "##ilit": 2500,
      "fam": 2501,
      "cent": 2502,
      "addresses": 2503,
      "refer": 2504,
      "privileges": 2505,
      "executable": 2506,
      "because": 2507,
      "patch": 2508,
      "bloc": 2509,
      "##ox": 2510,
      "injection": 2511,
      "##ionage": 2512,
      "point": 2513,
      "sol": 2514,
      "technolog": 2515,
      "sp2": 2516,
      "eas": 2517,
      "exploits": 2518,
      "head": 2519,
      "dr": 2520,
      "last": 2521,
      "##sh": 2522,
      "ins": 2523,
      "seen": 2524,
      "du": 2525,
      "groups": 2526,
      "functional": 2527,
      "local": 2528,
      "enter": 2529,
      "##ording": 2530,
      "day": 2531,
      "design": 2532,
      "##ets": 2533,
      "contin": 2534,
      "support": 2535,
      "##erg": 2536,
      "##itor": 2537,
      "##ability": 2538,
      "action": 2539,
      "##lows": 2540,
      "account": 2541,
      "##me": 2542,
      "linux": 2543,
      "##ended": 2544,
      "chinese": 2545,
      "21": 2546,
      "deco": 2547,
      "hard": 2548,
      "##urt": 2549,
      "brows": 2550,
      "ban": 2551,
      "enco": 2552,
      "bypass": 2553,
      "hel": 2554,
      "est": 2555,
      "30": 2556,
      "##res": 2557,
      "##lie": 2558,
      "upload": 2559,
      "##very": 2560,
      "indu": 2561,
      "type": 2562,
      "shar": 2563,
      "traff": 2564,
      "steal": 2565,
      "take": 2566,
      "##med": 2567,
      "field": 2568,
      "free": 2569,
      "ww": 2570,
      "##atch": 2571,
      "dig": 2572,
      "pur": 2573,
      "indust": 2574,
      "person": 2575,
      "blog": 2576,
      "stat": 2577,
      "possible": 2578,
      "named": 2579,
      "traffic": 2580,
      "attach": 2581,
      "pot": 2582,
      "belie": 2583,
      "32": 2584,
      "create": 2585,
      "##cl": 2586,
      "credentials": 2587,
      "stage": 2588,
      "device": 2589,
      "find": 2590,
      "27": 2591,
      "bre": 2592,
      "23": 2593,
      "##day": 2594,
      "cri": 2595,
      "associated": 2596,
      "memory": 2597,
      "once": 2598,
      "www": 2599,
      "##bed": 2600,
      "computers": 2601,
      "describ": 2602,
      "bug": 2603,
      "registry": 2604,
      "##po": 2605,
      "partic": 2606,
      "certific": 2607,
      "##ention": 2608,
      "##asp": 2609,
      "##cept": 2610,
      "russia": 2611,
      "milit": 2612,
      "conduct": 2613,
      "check": 2614,
      "exploited": 2615,
      "attribut": 2616,
      "appears": 2617,
      "actor": 2618,
      "##ault": 2619,
      "##ative": 2620,
      "##ror": 2621,
      "engine": 2622,
      "korea": 2623,
      "binary": 2624,
      "gu": 2625,
      "01": 2626,
      "##ero": 2627,
      "functionality": 2628,
      "reported": 2629,
      "##anc": 2630,
      "demon": 2631,
      "##put": 2632,
      "##ateg": 2633,
      "plat": 2634,
      "three": 2635,
      "might": 2636,
      "##vel": 2637,
      "those": 2638,
      "demonstr": 2639,
      "third": 2640,
      "##iness": 2641,
      "large": 2642,
      "env": 2643,
      "include": 2644,
      "affected": 2645,
      "##ead": 2646,
      "##ving": 2647,
      "##ital": 2648,
      "emails": 2649,
      "should": 2650,
      "contact": 2651,
      "ransomware": 2652,
      "register": 2653,
      "office": 2654,
      "##eng": 2655,
      "espionage": 2656,
      "beg": 2657,
      "lab": 2658,
      "driver": 2659,
      "image": 2660,
      "north": 2661,
      "bus": 2662,
      "##cp": 2663,
      "section": 2664,
      "##ivid": 2665,
      "specially": 2666,
      "companies": 2667,
      "furt": 2668,
      "according": 2669,
      "later": 2670,
      "need": 2671,
      "further": 2672,
      "##round": 2673,
      "military": 2674,
      "##iron": 2675,
      "es": 2676,
      "##isk": 2677,
      "communication": 2678,
      "world": 2679,
      "##name": 2680,
      "environ": 2681,
      "valid": 2682,
      "prob": 2683,
      "media": 2684,
      "very": 2685,
      "07": 2686,
      "peop": 2687,
      "ed": 2688,
      "##lob": 2689,
      "copy": 2690,
      "devices": 2691,
      "2008": 2692,
      "##now": 2693,
      "researchers": 2694,
      "##xx": 2695,
      "potential": 2696,
      "##gg": 2697,
      "##anced": 2698,
      "identify": 2699,
      "rev": 2700,
      "##aw": 2701,
      "28": 2702,
      "integr": 2703,
      "index": 2704,
      "platform": 2705,
      "individ": 2706,
      "br": 2707,
      "temp": 2708,
      "##rie": 2709,
      "prox": 2710,
      "##ract": 2711,
      "extens": 2712,
      "##nam": 2713,
      "cis": 2714,
      "##ier": 2715,
      "created": 2716,
      "pa": 2717,
      "##ines": 2718,
      "business": 2719,
      "##11": 2720,
      "##ules": 2721,
      "receiv": 2722,
      "02": 2723,
      "hash": 2724,
      "called": 2725,
      "##ove": 2726,
      "class": 2727,
      "deli": 2728,
      "##idence": 2729,
      "management": 2730,
      "03": 2731,
      "##old": 2732,
      "made": 2733,
      "##ator": 2734,
      "below": 2735,
      "least": 2736,
      "##ember": 2737,
      "##pe": 2738,
      "particular": 2739,
      "##ten": 2740,
      "execute": 2741,
      "discovered": 2742,
      "individual": 2743,
      "own": 2744,
      "##fil": 2745,
      "compil": 2746,
      "##ex": 2747,
      "##ark": 2748,
      "##ings": 2749,
      "lever": 2750,
      "hackers": 2751,
      "level": 2752,
      "trig": 2753,
      "reve": 2754,
      "##aking": 2755,
      "##tern": 2756,
      "successfully": 2757,
      "text": 2758,
      "machine": 2759,
      "party": 2760,
      "base": 2761,
      "##60": 2762,
      "online": 2763,
      "record": 2764,
      "50": 2765,
      "sugg": 2766,
      "result": 2767,
      "clear": 2768,
      "provided": 2769,
      "rout": 2770,
      "##ether": 2771,
      "interesting": 2772,
      "plugin": 2773,
      "fact": 2774,
      "your": 2775,
      "##oo": 2776,
      "##uch": 2777,
      "##df": 2778,
      "##ately": 2779,
      "datab": 2780,
      "news": 2781,
      "make": 2782,
      "##ocus": 2783,
      "power": 2784,
      "block": 2785,
      "lead": 2786,
      "chrom": 2787,
      "controll": 2788,
      "##aph": 2789,
      "##sc": 2790,
      "products": 2791,
      "##roid": 2792,
      "connection": 2793,
      "detection": 2794,
      "flash": 2795,
      "kasp": 2796,
      "sites": 2797,
      "##rict": 2798,
      "previously": 2799,
      "did": 2800,
      "mode": 2801,
      "##ersky": 2802,
      "years": 2803,
      "full": 2804,
      "tas": 2805,
      "##ons": 2806,
      "##ense": 2807,
      "##aries": 2808,
      "chrome": 2809,
      "kaspersky": 2810,
      "gre": 2811,
      "cisco": 2812,
      "##app": 2813,
      "##istic": 2814,
      "##ency": 2815,
      "04": 2816,
      "technical": 2817,
      "cases": 2818,
      "enab": 2819,
      "dropper": 2820,
      "compromise": 2821,
      "33": 2822,
      "distribut": 2823,
      "enterpr": 2824,
      "##ted": 2825,
      "still": 2826,
      "##28": 2827,
      "messages": 2828,
      "spear": 2829,
      "persist": 2830,
      "android": 2831,
      "##its": 2832,
      "##ocol": 2833,
      "variant": 2834,
      "present": 2835,
      "employ": 2836,
      "giv": 2837,
      "ukraine": 2838,
      "##idential": 2839,
      "sym": 2840,
      "issue": 2841,
      "##point": 2842,
      "chang": 2843,
      "##urn": 2844,
      "embed": 2845,
      "just": 2846,
      "south": 2847,
      "purp": 2848,
      "protocol": 2849,
      "format": 2850,
      "focus": 2851,
      "change": 2852,
      "ccess": 2853,
      "without": 2854,
      "few": 2855,
      "##usion": 2856,
      "##lished": 2857,
      "instead": 2858,
      "##unch": 2859,
      "setting": 2860,
      "show": 2861,
      "detect": 2862,
      "default": 2863,
      "bytes": 2864,
      "clic": 2865,
      "incre": 2866,
      "scre": 2867,
      "sch": 2868,
      "unt": 2869,
      "table": 2870,
      "dns": 2871,
      "##to": 2872,
      "##ased": 2873,
      "error": 2874,
      "##ij": 2875,
      "itself": 2876,
      "zero": 2877,
      "##ax": 2878,
      "deploy": 2879,
      "designed": 2880,
      "06": 2881,
      "##par": 2882,
      "incident": 2883,
      "monitor": 2884,
      "import": 2885,
      "breach": 2886,
      "author": 2887,
      "technology": 2888,
      "environment": 2889,
      "ge": 2890,
      "manager": 2891,
      "29": 2892,
      "gr": 2893,
      "saf": 2894,
      "demonstrated": 2895,
      "##usp": 2896,
      "frame": 2897,
      "organization": 2898,
      "prim": 2899,
      "help": 2900,
      "##ty": 2901,
      "track": 2902,
      "encryption": 2903,
      "social": 2904,
      "know": 2905,
      "##illa": 2906,
      "sw": 2907,
      "##ik": 2908,
      "makes": 2909,
      "often": 2910,
      "##olen": 2911,
      "glob": 2912,
      "analyz": 2913,
      "64": 2914,
      "##ution": 2915,
      "executed": 2916,
      "jul": 2917,
      "launch": 2918,
      "##14": 2919,
      "##ctions": 2920,
      "##man": 2921,
      "cloud": 2922,
      "date": 2923,
      "stolen": 2924,
      "various": 2925,
      "integrity": 2926,
      "every": 2927,
      "strateg": 2928,
      "containing": 2929,
      "installed": 2930,
      "shows": 2931,
      "jun": 2932,
      "risk": 2933,
      "advanced": 2934,
      "build": 2935,
      "##ged": 2936,
      "obtained": 2937,
      "here": 2938,
      "exist": 2939,
      "enterprise": 2940,
      "##ession": 2941,
      "sur": 2942,
      "packet": 2943,
      "##cs": 2944,
      "##ering": 2945,
      "confidential": 2946,
      "iran": 2947,
      "maj": 2948,
      "restrict": 2949,
      "tl": 2950,
      "##ge": 2951,
      "##af": 2952,
      "context": 2953,
      "provide": 2954,
      "non": 2955,
      "##los": 2956,
      "soph": 2957,
      "##13": 2958,
      "browser": 2959,
      "root": 2960,
      "##duke": 2961,
      "major": 2962,
      "now": 2963,
      "##ders": 2964,
      "jo": 2965,
      "respons": 2966,
      "##zilla": 2967,
      "##ences": 2968,
      "states": 2969,
      "infection": 2970,
      "##fus": 2971,
      "susp": 2972,
      "secure": 2973,
      "next": 2974,
      "agent": 2975,
      "countries": 2976,
      "size": 2977,
      "api": 2978,
      "autom": 2979,
      "shown": 2980,
      "march": 2981,
      "##fox": 2982,
      "##ypt": 2983,
      "stored": 2984,
      "appro": 2985,
      "##20": 2986,
      "sect": 2987,
      "components": 2988,
      "##itten": 2989,
      "black": 2990,
      "45": 2991,
      "##ably": 2992,
      "poin": 2993,
      "##box": 2994,
      "##aim": 2995,
      "##ety": 2996,
      "unique": 2997,
      "##ither": 2998,
      "contained": 2999,
      "evidence": 3000,
      "handle": 3001,
      "##ling": 3002,
      "art": 3003,
      "month": 3004,
      "offic": 3005,
      "firefox": 3006,
      "fix": 3007,
      "##d5": 3008,
      "resol": 3009,
      "##ding": 3010,
      "conv": 3011,
      "communications": 3012,
      "##iques": 3013,
      "digital": 3014,
      "deter": 3015,
      "tcp": 3016,
      "##miss": 3017,
      "strings": 3018,
      "byte": 3019,
      "##ration": 3020,
      "##aging": 3021,
      "advers": 3022,
      "exper": 3023,
      "recent": 3024,
      "behind": 3025,
      "intern": 3026,
      "##lete": 3027,
      "proxy": 3028,
      "xor": 3029,
      "techniques": 3030,
      "05": 3031,
      "database": 3032,
      "##omm": 3033,
      "pop": 3034,
      "modules": 3035,
      "test": 3036,
      "44": 3037,
      "##utions": 3038,
      "stand": 3039,
      "##antec": 3040,
      "##ward": 3041,
      "working": 3042,
      "symantec": 3043,
      "ib": 3044,
      "26": 3045,
      "lang": 3046,
      "occ": 3047,
      "2009": 3048,
      "linked": 3049,
      "less": 3050,
      "000": 3051,
      "##iddle": 3052,
      "##ra": 3053,
      "##ivers": 3054,
      "july": 3055,
      "signific": 3056,
      "header": 3057,
      "middle": 3058,
      "rsa": 3059,
      "##lex": 3060,
      "mob": 3061,
      "scan": 3062,
      "retrie": 3063,
      "sp1": 3064,
      "##eye": 3065,
      "##iants": 3066,
      "people": 3067,
      "functions": 3068,
      "mozilla": 3069,
      "player": 3070,
      "##ov": 3071,
      "operating": 3072,
      "##vert": 3073,
      "national": 3074,
      "##fusc": 3075,
      "variants": 3076,
      "customers": 3077,
      "##code": 3078,
      "jan": 3079,
      "sn": 3080,
      "seem": 3081,
      "remain": 3082,
      "##iting": 3083,
      "2017": 3084,
      "described": 3085,
      "##ready": 3086,
      "##ont": 3087,
      "##urs": 3088,
      "embedded": 3089,
      "##86": 3090,
      "listed": 3091,
      "stack": 3092,
      "quest": 3093,
      "##ert": 3094,
      "35": 3095,
      "##face": 3096,
      "##30": 3097,
      "arch": 3098,
      "claim": 3099,
      "##abilities": 3100,
      "values": 3101,
      "win32": 3102,
      "investigation": 3103,
      "intr": 3104,
      "financ": 3105,
      "typically": 3106,
      "library": 3107,
      "dot": 3108,
      "korean": 3109,
      "around": 3110,
      "asp": 3111,
      "capabilities": 3112,
      "##ai": 3113,
      "##ined": 3114,
      "intel": 3115,
      "sys": 3116,
      "##ergy": 3117,
      "air": 3118,
      "##ata": 3119,
      "links": 3120,
      "##lications": 3121,
      "included": 3122,
      "much": 3123,
      "intended": 3124,
      "login": 3125,
      "mark": 3126,
      "significant": 3127,
      "certificate": 3128,
      "above": 3129,
      "trend": 3130,
      "##ired": 3131,
      "sal": 3132,
      "resources": 3133,
      "##por": 3134,
      "anti": 3135,
      "##ider": 3136,
      "##uro": 3137,
      "##ery": 3138,
      "framework": 3139,
      "original": 3140,
      "threats": 3141,
      "rand": 3142,
      "obfusc": 3143,
      "registered": 3144,
      "ibm": 3145,
      "##key": 3146,
      "##80": 3147,
      "fake": 3148,
      "##ount": 3149,
      "##ength": 3150,
      "charac": 3151,
      "nor": 3152,
      "##16": 3153,
      "event": 3154,
      "across": 3155,
      "deliver": 3156,
      "##ively": 3157,
      "40": 3158,
      "special": 3159,
      "estab": 3160,
      "attempts": 3161,
      "project": 3162,
      "encoded": 3163,
      "dest": 3164,
      "##ek": 3165,
      "filen": 3166,
      "dy": 3167,
      "util": 3168,
      "character": 3169,
      "##19": 3170,
      "share": 3171,
      "believe": 3172,
      "line": 3173,
      "##red": 3174,
      "##ink": 3175,
      "implementation": 3176,
      "either": 3177,
      "my": 3178,
      "cn": 3179,
      "crypt": 3180,
      "feb": 3181,
      "protect": 3182,
      "redirect": 3183,
      "virt": 3184,
      "delete": 3185,
      "lim": 3186,
      "fireeye": 3187,
      "compiled": 3188,
      "family": 3189,
      "ple": 3190,
      "critical": 3191,
      "effect": 3192,
      "decoy": 3193,
      "firm": 3194,
      "##over": 3195,
      "private": 3196,
      "short": 3197,
      "fail": 3198,
      "oct": 3199,
      "received": 3200,
      "##ient": 3201,
      "##ony": 3202,
      "disk": 3203,
      "already": 3204,
      "##though": 3205,
      "allows": 3206,
      "internal": 3207,
      "mobile": 3208,
      "his": 3209,
      "directly": 3210,
      "langu": 3211,
      "financial": 3212,
      "although": 3213,
      "pdf": 3214,
      "detected": 3215,
      "##ler": 3216,
      "though": 3217,
      "location": 3218,
      "includes": 3219,
      "authentic": 3220,
      "virus": 3221,
      "force": 3222,
      "defense": 3223,
      "administrative": 3224,
      "##ah": 3225,
      "##17": 3226,
      "##acy": 3227,
      "given": 3228,
      "due": 3229,
      "sophistic": 3230,
      "##88": 3231,
      "info": 3232,
      "enabled": 3233,
      "##pro": 3234,
      "cc": 3235,
      "##md": 3236,
      "processes": 3237,
      "programs": 3238,
      "hij": 3239,
      "arg": 3240,
      "attempt": 3241,
      "disclos": 3242,
      "confidentiality": 3243,
      "##sl": 3244,
      "##ued": 3245,
      "begin": 3246,
      "june": 3247,
      "hijack": 3248,
      "09": 3249,
      "vide": 3250,
      "##time": 3251,
      "protection": 3252,
      "must": 3253,
      "##bug": 3254,
      "provides": 3255,
      "center": 3256,
      "please": 3257,
      "sk": 3258,
      "whether": 3259,
      "connections": 3260,
      "##25": 3261,
      "##hot": 3262,
      "hacking": 3263,
      "global": 3264,
      "past": 3265,
      "applications": 3266,
      "configured": 3267,
      "##ober": 3268,
      "four": 3269,
      "##ances": 3270,
      "stud": 3271,
      "means": 3272,
      "shared": 3273,
      "34": 3274,
      "extract": 3275,
      "stux": 3276,
      "webkit": 3277,
      "trad": 3278,
      "lat": 3279,
      "##27": 3280,
      "##osed": 3281,
      "quick": 3282,
      "impl": 3283,
      "written": 3284,
      "united": 3285,
      "activities": 3286,
      "simple": 3287,
      "##uc": 3288,
      "international": 3289,
      "passwords": 3290,
      "reveal": 3291,
      "stuxnet": 3292,
      "const": 3293,
      "located": 3294,
      "settings": 3295,
      "sing": 3296,
      "##35": 3297,
      "##atures": 3298,
      "top": 3299,
      "small": 3300,
      "collect": 3301,
      "task": 3302,
      "##34": 3303,
      "##att": 3304,
      "##graph": 3305,
      "##ump": 3306,
      "folder": 3307,
      "availability": 3308,
      "thread": 3309,
      "append": 3310,
      "displ": 3311,
      "##mail": 3312,
      "##db": 3313,
      "##echan": 3314,
      "##hip": 3315,
      "cybers": 3316,
      "tact": 3317,
      "ref": 3318,
      "development": 3319,
      "##29": 3320,
      "methods": 3321,
      "virtual": 3322,
      "md5": 3323,
      "##omet": 3324,
      "confir": 3325,
      "random": 3326,
      "##asc": 3327,
      "publicly": 3328,
      "polic": 3329,
      "mechan": 3330,
      "spread": 3331,
      "trust": 3332,
      "repres": 3333,
      "##mm": 3334,
      "effor": 3335,
      "operators": 3336,
      "depend": 3337,
      "pos": 3338,
      "times": 3339,
      "##minal": 3340,
      "click": 3341,
      "36": 3342,
      "equ": 3343,
      "dropped": 3344,
      "##89": 3345,
      "##az": 3346,
      "bo": 3347,
      "complete": 3348,
      "sending": 3349,
      "apr": 3350,
      "parameters": 3351,
      "industry": 3352,
      "aug": 3353,
      "connected": 3354,
      "dynam": 3355,
      "exfil": 3356,
      "simp": 3357,
      "uthentication": 3358,
      "structure": 3359,
      "reports": 3360,
      "2007": 3361,
      "##50": 3362,
      "installation": 3363,
      "##air": 3364,
      "##uary": 3365,
      "heap": 3366,
      "elect": 3367,
      "exfiltr": 3368,
      "##ivir": 3369,
      "2003": 3370,
      "antivir": 3371,
      "important": 3372,
      "element": 3373,
      "january": 3374,
      "fac": 3375,
      "length": 3376,
      "official": 3377,
      "##87": 3378,
      "white": 3379,
      "ens": 3380,
      "interface": 3381,
      "sel": 3382,
      "general": 3383,
      "##amp": 3384,
      "personal": 3385,
      "hp": 3386,
      "univers": 3387,
      "individuals": 3388,
      "language": 3389,
      "nt": 3390,
      "antivirus": 3391,
      "##gor": 3392,
      "xp": 3393,
      "series": 3394,
      "##ior": 3395,
      "write": 3396,
      "##ization": 3397,
      "resource": 3398,
      "published": 3399,
      "febru": 3400,
      "far": 3401,
      "##la": 3402,
      "vulner": 3403,
      "specif": 3404,
      "earlier": 3405,
      "37": 3406,
      "suggest": 3407,
      "february": 3408,
      "##41": 3409,
      "##37": 3410,
      "##ised": 3411,
      "##ives": 3412,
      "##arily": 3413,
      "opp": 3414,
      "##ables": 3415,
      "sp3": 3416,
      "visit": 3417,
      "famil": 3418,
      "inside": 3419,
      "range": 3420,
      "##ograph": 3421,
      "##ache": 3422,
      "prior": 3423,
      "31": 3424,
      "conc": 3425,
      "feature": 3426,
      "depart": 3427,
      "##ism": 3428,
      "core": 3429,
      "##wr": 3430,
      "extension": 3431,
      "vulnerable": 3432,
      "profile": 3433,
      "dark": 3434,
      "mill": 3435,
      "##esh": 3436,
      "##ification": 3437,
      "involving": 3438,
      "permiss": 3439,
      "logs": 3440,
      "behav": 3441,
      "standard": 3442,
      "euro": 3443,
      "downloaded": 3444,
      "return": 3445,
      "integer": 3446,
      "##view": 3447,
      "signed": 3448,
      "##hers": 3449,
      "##aged": 3450,
      "modify": 3451,
      "attachment": 3452,
      "##gorith": 3453,
      "algorith": 3454,
      "##ef": 3455,
      "requests": 3456,
      "maintain": 3457,
      "trigger": 3458,
      "bel": 3459,
      "single": 3460,
      "discuss": 3461,
      "drive": 3462,
      "wide": 3463,
      "yet": 3464,
      "##24": 3465,
      "rc": 3466,
      "##set": 3467,
      "##ecurity": 3468,
      "checks": 3469,
      "gh": 3470,
      "exc": 3471,
      "conflic": 3472,
      "##67": 3473,
      "unders": 3474,
      "creates": 3475,
      "country": 3476,
      "ability": 3477,
      "adversary": 3478,
      "political": 3479,
      "47": 3480,
      "r2": 3481,
      "##ock": 3482,
      "dd": 3483,
      "##90": 3484,
      "##hing": 3485,
      "leak": 3486,
      "shellcode": 3487,
      "tur": 3488,
      "nove": 3489,
      "april": 3490,
      "card": 3491,
      "keys": 3492,
      "october": 3493,
      "##row": 3494,
      "##quently": 3495,
      "##aps": 3496,
      "##eign": 3497,
      "##rect": 3498,
      "##rike": 3499,
      "responsible": 3500,
      "08": 3501,
      "##33": 3502,
      "##ison": 3503,
      "cp": 3504,
      "##rep": 3505,
      "prevent": 3506,
      "##40": 3507,
      "potentially": 3508,
      "match": 3509,
      "##gers": 3510,
      "##minals": 3511,
      "developed": 3512,
      "instit": 3513,
      "diff": 3514,
      "whose": 3515,
      "appendix": 3516,
      "technique": 3517,
      "mot": 3518,
      "put": 3519,
      "et": 3520,
      "calls": 3521,
      "subject": 3522,
      "early": 3523,
      "exploitation": 3524,
      "tlp": 3525,
      "##97": 3526,
      "##ults": 3527,
      "corpor": 3528,
      "pointer": 3529,
      "move": 3530,
      "europe": 3531,
      "ro": 3532,
      "low": 3533,
      "sl": 3534,
      "##ba": 3535,
      "members": 3536,
      "capt": 3537,
      "##ands": 3538,
      "policy": 3539,
      "electr": 3540,
      "##ool": 3541,
      "##ls": 3542,
      "screens": 3543,
      "##annel": 3544,
      "strong": 3545,
      "##aud": 3546,
      "##ute": 3547,
      "place": 3548,
      "entry": 3549,
      "week": 3550,
      "engineering": 3551,
      "##ather": 3552,
      "##acts": 3553,
      "display": 3554,
      "##cri": 3555,
      "released": 3556,
      "issues": 3557,
      "##atic": 3558,
      "space": 3559,
      "accept": 3560,
      "##te": 3561,
      "decod": 3562,
      "cir": 3563,
      "ios": 3564,
      "##ternal": 3565,
      "comb": 3566,
      "scen": 3567,
      "filename": 3568,
      "exists": 3569,
      "nat": 3570,
      "##under": 3571,
      "foreign": 3572,
      "updates": 3573,
      "vend": 3574,
      "##ams": 3575,
      "##aken": 3576,
      "ukrainian": 3577,
      "reas": 3578,
      "##rid": 3579,
      "video": 3580,
      "august": 3581,
      "mc": 3582,
      "december": 3583,
      "consist": 3584,
      "paper": 3585,
      "80": 3586,
      "days": 3587,
      "modified": 3588,
      "tun": 3589,
      "xml": 3590,
      "separ": 3591,
      "repl": 3592,
      "hacker": 3593,
      "highly": 3594,
      "##fs": 3595,
      "##ured": 3596,
      "along": 3597,
      "##vertis": 3598,
      "hist": 3599,
      "##go": 3600,
      "hosted": 3601,
      "consider": 3602,
      "somet": 3603,
      "upon": 3604,
      "100": 3605,
      "ff": 3606,
      "##erc": 3607,
      "##ario": 3608,
      "analyzed": 3609,
      "##000": 3610,
      "step": 3611,
      "indicators": 3612,
      "purpose": 3613,
      "base64": 3614,
      "takes": 3615,
      "##18": 3616,
      "##itter": 3617,
      "##iod": 3618,
      "buil": 3619,
      "administrators": 3620,
      "##ath": 3621,
      "spoo": 3622,
      "phone": 3623,
      "proble": 3624,
      "55": 3625,
      "##ging": 3626,
      "reser": 3627,
      "##ume": 3628,
      "numbers": 3629,
      "46": 3630,
      "zone": 3631,
      "spy": 3632,
      "##coded": 3633,
      "involved": 3634,
      "prop": 3635,
      "instance": 3636,
      "##apt": 3637,
      "##alt": 3638,
      "##anda": 3639,
      "indicates": 3640,
      "argument": 3641,
      "sequ": 3642,
      "vol": 3643,
      "department": 3644,
      "conflict": 3645,
      "##cent": 3646,
      "sept": 3647,
      "##side": 3648,
      "##ae": 3649,
      "botnet": 3650,
      "##book": 3651,
      "##ored": 3652,
      "##aces": 3653,
      "among": 3654,
      "##99": 3655,
      "##kt": 3656,
      "mit": 3657,
      "##ements": 3658,
      "flaw": 3659,
      "currently": 3660,
      "screenshot": 3661,
      "##ames": 3662,
      "##23": 3663,
      "sophisticated": 3664,
      "algorithm": 3665,
      "har": 3666,
      "##oid": 3667,
      "##ination": 3668,
      "rather": 3669,
      "hardcoded": 3670,
      "##bird": 3671,
      "thunder": 3672,
      "##44": 3673,
      "channel": 3674,
      "period": 3675,
      "ssl": 3676,
      "exch": 3677,
      "hosting": 3678,
      "external": 3679,
      "bank": 3680,
      "spoof": 3681,
      "cal": 3682,
      "home": 3683,
      "##rob": 3684,
      "recently": 3685,
      "da": 3686,
      "option": 3687,
      "session": 3688,
      "others": 3689,
      "export": 3690,
      "thunderbird": 3691,
      "scenario": 3692,
      "aud": 3693,
      "tib": 3694,
      "##26": 3695,
      "##idents": 3696,
      "pract": 3697,
      "##medi": 3698,
      "##rust": 3699,
      "##ascript": 3700,
      "changes": 3701,
      "let": 3702,
      "mention": 3703,
      "##ep": 3704,
      "##98": 3705,
      "events": 3706,
      "crime": 3707,
      "authentication": 3708,
      "results": 3709,
      "##ference": 3710,
      "accessed": 3711,
      "underst": 3712,
      "twitter": 3713,
      "face": 3714,
      "rt": 3715,
      "spe": 3716,
      "director": 3717,
      "identif": 3718,
      "excel": 3719,
      "javascript": 3720,
      "tel": 3721,
      "##data": 3722,
      "##ision": 3723,
      "cmd": 3724,
      "gold": 3725,
      "##ystem": 3726,
      "##way": 3727,
      "try": 3728,
      "sv": 3729,
      "solutions": 3730,
      "latest": 3731,
      "specifically": 3732,
      "machines": 3733,
      "popular": 3734,
      "university": 3735,
      "65": 3736,
      "##ned": 3737,
      "##erous": 3738,
      "##icult": 3739,
      "star": 3740,
      "operate": 3741,
      "easier": 3742,
      "leveraging": 3743,
      "convince": 3744,
      "kee": 3745,
      "lot": 3746,
      "making": 3747,
      "incor": 3748,
      "loader": 3749,
      "sends": 3750,
      "continue": 3751,
      "water": 3752,
      "##ness": 3753,
      "unit": 3754,
      "sector": 3755,
      "gather": 3756,
      "##wall": 3757,
      "release": 3758,
      "38": 3759,
      "chain": 3760,
      "hook": 3761,
      "difficult": 3762,
      "understand": 3763,
      "py": 3764,
      "says": 3765,
      "##65": 3766,
      "##kes": 3767,
      "never": 3768,
      "impro": 3769,
      "fraud": 3770,
      "https": 3771,
      "##ank": 3772,
      "runs": 3773,
      "##reports": 3774,
      "fal": 3775,
      "##bc": 3776,
      "input": 3777,
      "quests": 3778,
      "##coin": 3779,
      "##ype": 3780,
      "september": 3781,
      "##ees": 3782,
      "##bit": 3783,
      "##22": 3784,
      "persistence": 3785,
      "strategic": 3786,
      "ensure": 3787,
      "mag": 3788,
      "##hell": 3789,
      "##file": 3790,
      "contents": 3791,
      "##ants": 3792,
      "specified": 3793,
      "interact": 3794,
      "cybercri": 3795,
      "loaded": 3796,
      "actions": 3797,
      "pal": 3798,
      "##less": 3799,
      "added": 3800,
      "arr": 3801,
      "output": 3802,
      "activex": 3803,
      "powers": 3804,
      "taken": 3805,
      "syri": 3806,
      "assist": 3807,
      "triggers": 3808,
      "hot": 3809,
      "cook": 3810,
      "recon": 3811,
      "india": 3812,
      "until": 3813,
      "econ": 3814,
      "##bs": 3815,
      "##itch": 3816,
      "miss": 3817,
      "generated": 3818,
      "law": 3819,
      "mas": 3820,
      "##uke": 3821,
      "compar": 3822,
      "region": 3823,
      "privilege": 3824,
      "60": 3825,
      "dam": 3826,
      "##95": 3827,
      "compress": 3828,
      "csct": 3829,
      "##fare": 3830,
      "artic": 3831,
      "##back": 3832,
      "##pn": 3833,
      "inqu": 3834,
      "##aced": 3835,
      "intelreports": 3836,
      "tactics": 3837,
      "simply": 3838,
      "fut": 3839,
      "hor": 3840,
      "##org": 3841,
      "tran": 3842,
      "##idden": 3843,
      "cybersecurity": 3844,
      "pages": 3845,
      "hosts": 3846,
      "##mine": 3847,
      "##used": 3848,
      "alm": 3849,
      "types": 3850,
      "cond": 3851,
      "window": 3852,
      "runtime": 3853,
      "carb": 3854,
      "duqu": 3855,
      "pan": 3856,
      "##omp": 3857,
      "43": 3858,
      "2018": 3859,
      "avoid": 3860,
      "families": 3861,
      "hum": 3862,
      "overl": 3863,
      "##rusted": 3864,
      "##96": 3865,
      "##emb": 3866,
      "getting": 3867,
      "probably": 3868,
      "represent": 3869,
      "energy": 3870,
      "warfare": 3871,
      "tibet": 3872,
      "don": 3873,
      "old": 3874,
      "##ral": 3875,
      "store": 3876,
      "started": 3877,
      "descript": 3878,
      "decrypted": 3879,
      "##na": 3880,
      "##ds": 3881,
      "untrusted": 3882,
      "cves": 3883,
      "debug": 3884,
      "hav": 3885,
      "hidden": 3886,
      "pi": 3887,
      "##tion": 3888,
      "##77": 3889,
      "require": 3890,
      "utc": 3891,
      "community": 3892,
      "best": 3893,
      "usually": 3894,
      "bitcoin": 3895,
      "future": 3896,
      "##85": 3897,
      "##ibility": 3898,
      "detailed": 3899,
      "months": 3900,
      "econom": 3901,
      "immedi": 3902,
      "looking": 3903,
      "controller": 3904,
      "primary": 3905,
      "##here": 3906,
      "evol": 3907,
      "locations": 3908,
      "advis": 3909,
      "revealed": 3910,
      "phys": 3911,
      "diss": 3912,
      "drag": 3913,
      "comment": 3914,
      "primarily": 3915,
      "##45": 3916,
      "forum": 3917,
      "noted": 3918,
      "null": 3919,
      "##be": 3920,
      "tele": 3921,
      "limited": 3922,
      "cit": 3923,
      "##pc": 3924,
      "reader": 3925,
      "ve": 3926,
      "##inc": 3927,
      "##iger": 3928,
      "produ": 3929,
      "appar": 3930,
      "features": 3931,
      "monitoring": 3932,
      "belong": 3933,
      "##ari": 3934,
      "signature": 3935,
      "##acters": 3936,
      "left": 3937,
      "indicate": 3938,
      "suggests": 3939,
      "sun": 3940,
      "##ones": 3941,
      "beac": 3942,
      "outside": 3943,
      "firewall": 3944,
      "macro": 3945,
      "characters": 3946,
      "persistent": 3947,
      "##not": 3948,
      "researcher": 3949,
      "db": 3950,
      "##dp": 3951,
      "##amm": 3952,
      "assess": 3953,
      "apt1": 3954,
      "advant": 3955,
      "ue": 3956,
      "##ways": 3957,
      "almost": 3958,
      "##board": 3959,
      "##itted": 3960,
      "actually": 3961,
      "keep": 3962,
      "##my": 3963,
      "backdoors": 3964,
      "##ta": 3965,
      "clust": 3966,
      "close": 3967,
      "uffer": 3968,
      "##alth": 3969,
      "query": 3970,
      "novem": 3971,
      "##rant": 3972,
      "##isher": 3973,
      "express": 3974,
      "million": 3975,
      "reserved": 3976,
      "november": 3977,
      "ec": 3978,
      "lack": 3979,
      "tot": 3980,
      "##respon": 3981,
      "self": 3982,
      "##umer": 3983,
      "##asing": 3984,
      "apps": 3985,
      "receive": 3986,
      "implant": 3987,
      "##gu": 3988,
      "records": 3989,
      "five": 3990,
      "##84": 3991,
      "opt": 3992,
      "summ": 3993,
      "apt28": 3994,
      "deployed": 3995,
      "panda": 3996,
      "##pect": 3997,
      "mechanism": 3998,
      "53": 3999,
      "56": 4000,
      "csr": 4001,
      "##onym": 4002,
      "##umption": 4003,
      "behavior": 4004,
      "##ktop": 4005,
      "stre": 4006,
      "##formed": 4007,
      "relations": 4008,
      "binaries": 4009,
      "nation": 4010,
      "##hs": 4011,
      "##emon": 4012,
      "##apan": 4013,
      "allowed": 4014,
      "certificates": 4015,
      "determine": 4016,
      "intrusion": 4017,
      "operational": 4018,
      "appeared": 4019,
      "norm": 4020,
      "##rial": 4021,
      "username": 4022,
      "minist": 4023,
      "additionally": 4024,
      "distributed": 4025,
      "focused": 4026,
      "sand": 4027,
      "##des": 4028,
      "##ensive": 4029,
      "##ecess": 4030,
      "##ale": 4031,
      "play": 4032,
      "screen": 4033,
      "tit": 4034,
      "wild": 4035,
      "##ience": 4036,
      "##lear": 4037,
      "##afee": 4038,
      "japan": 4039,
      "georg": 4040,
      "mentioned": 4041,
      "dword": 4042,
      "tag": 4043,
      "##alid": 4044,
      "advertis": 4045,
      "payment": 4046,
      "plugins": 4047,
      "permissions": 4048,
      "human": 4049,
      "litt": 4050,
      "##ista": 4051,
      "entities": 4052,
      "remo": 4053,
      "desktop": 4054,
      "deleted": 4055,
      "say": 4056,
      "tmp": 4057,
      "doub": 4058,
      "finally": 4059,
      "attribution": 4060,
      "vm": 4061,
      "##wise": 4062,
      "scripts": 4063,
      "drop": 4064,
      "##ipp": 4065,
      "##atically": 4066,
      "##space": 4067,
      "regard": 4068,
      "suite": 4069,
      "money": 4070,
      "approach": 4071,
      "malformed": 4072,
      "transfer": 4073,
      "seems": 4074,
      "dynamic": 4075,
      "##36": 4076,
      "executes": 4077,
      "little": 4078,
      "crow": 4079,
      "##auth": 4080,
      "##ium": 4081,
      "defend": 4082,
      "impacted": 4083,
      "ann": 4084,
      "employees": 4085,
      "oil": 4086,
      "vista": 4087,
      "conducted": 4088,
      "##iet": 4089,
      "##47": 4090,
      "cho": 4091,
      "plan": 4092,
      "42": 4093,
      "js": 4094,
      "##zy": 4095,
      "basic": 4096,
      "downloader": 4097,
      "iranian": 4098,
      "##right": 4099,
      "##pend": 4100,
      "agency": 4101,
      "required": 4102,
      "correspon": 4103,
      "mean": 4104,
      "variety": 4105,
      "administrator": 4106,
      "tradition": 4107,
      "starts": 4108,
      "48": 4109,
      "##esp": 4110,
      "mov": 4111,
      "print": 4112,
      "objects": 4113,
      "total": 4114,
      "##ody": 4115,
      "drivers": 4116,
      "##ne": 4117,
      "##bi": 4118,
      "##arus": 4119,
      "weap": 4120,
      "indian": 4121,
      "tor": 4122,
      "exchange": 4123,
      "##by": 4124,
      "green": 4125,
      "rootkit": 4126,
      "mcafee": 4127,
      "powershell": 4128,
      "##look": 4129,
      "care": 4130,
      "overwr": 4131,
      "subm": 4132,
      "57": 4133,
      "concl": 4134,
      "complex": 4135,
      "incidents": 4136,
      "reference": 4137,
      "ddos": 4138,
      "daemon": 4139,
      "exam": 4140,
      "collected": 4141,
      "##enger": 4142,
      "cover": 4143,
      "##estamp": 4144,
      "authors": 4145,
      "delivered": 4146,
      "49": 4147,
      "storage": 4148,
      "began": 4149,
      "reveals": 4150,
      "crowd": 4151,
      "##55": 4152,
      "##els": 4153,
      "instant": 4154,
      "flag": 4155,
      "routine": 4156,
      "problem": 4157,
      "always": 4158,
      "regime": 4159,
      "advantage": 4160,
      "##encies": 4161,
      "der": 4162,
      "##list": 4163,
      "##21": 4164,
      "##oses": 4165,
      "motiv": 4166,
      "circ": 4167,
      "timestamp": 4168,
      "vector": 4169,
      "packets": 4170,
      "di": 4171,
      "##ven": 4172,
      "trick": 4173,
      "pip": 4174,
      "sed": 4175,
      "##ked": 4176,
      "consumption": 4177,
      "industrial": 4178,
      "concer": 4179,
      "happ": 4180,
      "##ada": 4181,
      "##istics": 4182,
      "controlled": 4183,
      "hy": 4184,
      "col": 4185,
      "invalid": 4186,
      "independ": 4187,
      "recomm": 4188,
      "sources": 4189,
      "built": 4190,
      "##38": 4191,
      "health": 4192,
      "broad": 4193,
      "switch": 4194,
      "determin": 4195,
      "occurr": 4196,
      "nature": 4197,
      "##ode": 4198,
      "facebook": 4199,
      "emerg": 4200,
      "workst": 4201,
      "##ledge": 4202,
      "cnc": 4203,
      "72": 4204,
      "enough": 4205,
      "wi": 4206,
      "##bot": 4207,
      "actual": 4208,
      "requir": 4209,
      "explain": 4210,
      "copyright": 4211,
      "nato": 4212,
      "immediately": 4213,
      "reach": 4214,
      "final": 4215,
      "##oft": 4216,
      "anonym": 4217,
      "##ceed": 4218,
      "safari": 4219,
      "piec": 4220,
      "csrf": 4221,
      "right": 4222,
      "sit": 4223,
      "##strike": 4224,
      "reason": 4225,
      "jour": 4226,
      "##of": 4227,
      "spons": 4228,
      "52": 4229,
      "##61": 4230,
      "##wan": 4231,
      "39": 4232,
      "pars": 4233,
      "reporting": 4234,
      "messenger": 4235,
      "plugx": 4236,
      "attachments": 4237,
      "ru": 4238,
      "##light": 4239,
      "seam": 4240,
      "citiz": 4241,
      "##70": 4242,
      "cozy": 4243,
      "dump": 4244,
      "claims": 4245,
      "beacon": 4246,
      "crowdstrike": 4247,
      "turn": 4248,
      "want": 4249,
      "shad": 4250,
      "former": 4251,
      "amount": 4252,
      "criminal": 4253,
      "article": 4254,
      "necess": 4255,
      "##page": 4256,
      "secr": 4257,
      "creating": 4258,
      "effort": 4259,
      "separate": 4260,
      "mitig": 4261,
      "mis": 4262,
      "today": 4263,
      "operator": 4264,
      "patched": 4265,
      "done": 4266,
      "uri": 4267,
      "##tun": 4268,
      "offer": 4269,
      "##ried": 4270,
      "presence": 4271,
      "become": 4272,
      "capability": 4273,
      "distribution": 4274,
      "retrieved": 4275,
      "##ho": 4276,
      "going": 4277,
      "updated": 4278,
      "demand": 4279,
      "market": 4280,
      "sat": 4281,
      "##63": 4282,
      "thus": 4283,
      "revers": 4284,
      "why": 4285,
      "percent": 4286,
      "variable": 4287,
      "41": 4288,
      "late": 4289,
      "near": 4290,
      "ol": 4291,
      "filter": 4292,
      "##omla": 4293,
      "urls": 4294,
      "##attack": 4295,
      "horse": 4296,
      "hide": 4297,
      "ics": 4298,
      "pc": 4299,
      "##td": 4300,
      "##nk": 4301,
      "##enced": 4302,
      "##ift": 4303,
      "protected": 4304,
      "74": 4305,
      "fed": 4306,
      "##93": 4307,
      "##issance": 4308,
      "developers": 4309,
      "archive": 4310,
      "reconna": 4311,
      "alert": 4312,
      "uns": 4313,
      "##istan": 4314,
      "logged": 4315,
      "followed": 4316,
      "uploaded": 4317,
      "confirmed": 4318,
      "ach": 4319,
      "disru": 4320,
      "instruct": 4321,
      "handler": 4322,
      "transl": 4323,
      "##going": 4324,
      "ele": 4325,
      "##94": 4326,
      "adapt": 4327,
      "follows": 4328,
      "backup": 4329,
      "safe": 4330,
      "knowledge": 4331,
      "reconnaissance": 4332,
      "pict": 4333,
      "##gi": 4334,
      "##75": 4335,
      "##war": 4336,
      "##itions": 4337,
      "therefore": 4338,
      "mim": 4339,
      "##onkey": 4340,
      "enable": 4341,
      "controls": 4342,
      "payloads": 4343,
      "credit": 4344,
      "journal": 4345,
      "##rel": 4346,
      "bear": 4347,
      "##igned": 4348,
      "good": 4349,
      "analyst": 4350,
      "esr": 4351,
      "description": 4352,
      "bound": 4353,
      "kill": 4354,
      "vpn": 4355,
      "##sel": 4356,
      "technologies": 4357,
      "tempor": 4358,
      "surve": 4359,
      "traditional": 4360,
      "side": 4361,
      "cour": 4362,
      "cyberattack": 4363,
      "##iews": 4364,
      "drives": 4365,
      "profession": 4366,
      "cpu": 4367,
      "seamonkey": 4368,
      "come": 4369,
      "loop": 4370,
      "allowing": 4371,
      "validate": 4372,
      "fewer": 4373,
      "joomla": 4374,
      "61": 4375,
      "stop": 4376,
      "##imal": 4377,
      "regin": 4378,
      "iv": 4379,
      "poison": 4380,
      "downloads": 4381,
      "achie": 4382,
      "tai": 4383,
      "##energy": 4384,
      "alle": 4385,
      "rc4": 4386,
      "hang": 4387,
      "##press": 4388,
      "platforms": 4389,
      "quickly": 4390,
      "press": 4391,
      "##02": 4392,
      "##ann": 4393,
      "property": 4394,
      "communicate": 4395,
      "frequently": 4396,
      "tracking": 4397,
      "51": 4398,
      "ftp": 4399,
      "##ken": 4400,
      "sha": 4401,
      "##upal": 4402,
      "defence": 4403,
      "entire": 4404,
      "administration": 4405,
      "stealing": 4406,
      "blackenergy": 4407,
      "having": 4408,
      "aware": 4409,
      "usb": 4410,
      "staff": 4411,
      "customer": 4412,
      "implemented": 4413,
      "schem": 4414,
      "city": 4415,
      "theft": 4416,
      "outlook": 4417,
      "sock": 4418,
      "drupal": 4419,
      "majority": 4420,
      "establish": 4421,
      "dw": 4422,
      "ra": 4423,
      "##ising": 4424,
      "clients": 4425,
      "decryption": 4426,
      "easily": 4427,
      "tibetan": 4428,
      "boot": 4429,
      "fri": 4430,
      "hit": 4431,
      "forger": 4432,
      "laz": 4433,
      "##imately": 4434,
      "commonly": 4435,
      "sharing": 4436,
      "sandbox": 4437,
      "taiwan": 4438,
      "70": 4439,
      "ce": 4440,
      "cannot": 4441,
      "loading": 4442,
      "apache": 4443,
      "kind": 4444,
      "##get": 4445,
      "##ora": 4446,
      "took": 4447,
      "unc": 4448,
      "exposed": 4449,
      "##ruction": 4450,
      "reading": 4451,
      "governments": 4452,
      "forgery": 4453,
      "##erson": 4454,
      "##ulation": 4455,
      "compile": 4456,
      "##like": 4457,
      "executing": 4458,
      "prec": 4459,
      "##fc": 4460,
      "##alf": 4461,
      "##works": 4462,
      "##rael": 4463,
      "east": 4464,
      "##gress": 4465,
      "##48": 4466,
      "node": 4467,
      "capable": 4468,
      "##selves": 4469,
      "lazarus": 4470,
      "##sm": 4471,
      "infections": 4472,
      "quite": 4473,
      "verify": 4474,
      "changed": 4475,
      "tiger": 4476,
      "told": 4477,
      "regular": 4478,
      "offset": 4479,
      "disclosed": 4480,
      "advisory": 4481,
      "##71": 4482,
      "unlike": 4483,
      "publ": 4484,
      "numerous": 4485,
      "visual": 4486,
      "corporate": 4487,
      "8b": 4488,
      "aes": 4489,
      "##31": 4490,
      "##ises": 4491,
      "enfor": 4492,
      "instances": 4493,
      "ministry": 4494,
      "sr": 4495,
      "ssh": 4496,
      "##pri": 4497,
      "##imes": 4498,
      "managed": 4499,
      "existing": 4500,
      "cozyduke": 4501,
      "pen": 4502,
      "##uf": 4503,
      "##onic": 4504,
      "israel": 4505,
      "comes": 4506,
      "compat": 4507,
      "##sole": 4508,
      "issued": 4509,
      "experts": 4510,
      "taking": 4511,
      "phot": 4512,
      "beginning": 4513,
      "officials": 4514,
      "throughout": 4515,
      "registration": 4516,
      "incorrect": 4517,
      "big": 4518,
      "##aws": 4519,
      "recover": 4520,
      "installer": 4521,
      "providing": 4522,
      "##lock": 4523,
      "efforts": 4524,
      "select": 4525,
      "63": 4526,
      "tog": 4527,
      "hours": 4528,
      "identity": 4529,
      "organis": 4530,
      "##player": 4531,
      "banking": 4532,
      "sequence": 4533,
      "##ecially": 4534,
      "sty": 4535,
      "##izes": 4536,
      "handling": 4537,
      "especially": 4538,
      "automatically": 4539,
      "together": 4540,
      "exact": 4541,
      "##oming": 4542,
      "uncover": 4543,
      "relative": 4544,
      "##land": 4545,
      "##fe": 4546,
      "proced": 4547,
      "themselves": 4548,
      "provider": 4549,
      "launched": 4550,
      "##68": 4551,
      "##ception": 4552,
      "enumer": 4553,
      "##liance": 4554,
      "desp": 4555,
      "statement": 4556,
      "increase": 4557,
      "firmware": 4558,
      "nhs": 4559,
      "zip": 4560,
      "##ners": 4561,
      "##anak": 4562,
      "console": 4563,
      "opening": 4564,
      "particularly": 4565,
      "older": 4566,
      "ben": 4567,
      "ill": 4568,
      "##ton": 4569,
      "##ree": 4570,
      "promp": 4571,
      "disab": 4572,
      "keylog": 4573,
      "acrob": 4574,
      "attribute": 4575,
      "established": 4576,
      "course": 4577,
      "acrobat": 4578,
      "mut": 4579,
      "##nc": 4580,
      "##92": 4581,
      "##dc": 4582,
      "ongoing": 4583,
      "package": 4584,
      "looks": 4585,
      "volume": 4586,
      "relationship": 4587,
      "##66": 4588,
      "ips": 4589,
      "president": 4590,
      "termin": 4591,
      "endpoint": 4592,
      "increasing": 4593,
      "arbit": 4594,
      "recip": 4595,
      "points": 4596,
      "despite": 4597,
      "mys": 4598,
      "creation": 4599,
      "decoded": 4600,
      "ct": 4601,
      "cam": 4602,
      "wip": 4603,
      "##nt": 4604,
      "##vc": 4605,
      "forward": 4606,
      "member": 4607,
      "wordpress": 4608,
      "status": 4609,
      "##bb": 4610,
      "acqu": 4611,
      "carbanak": 4612,
      "requires": 4613,
      "body": 4614,
      "clr": 4615,
      "discovery": 4616,
      "cookie": 4617,
      "damage": 4618,
      "documented": 4619,
      "opens": 4620,
      "supply": 4621,
      "counter": 4622,
      "meas": 4623,
      "mass": 4624,
      "txt": 4625,
      "##39": 4626,
      "##sequ": 4627,
      "retur": 4628,
      "collection": 4629,
      "distin": 4630,
      "sched": 4631,
      "recommend": 4632,
      "occurred": 4633,
      "feder": 4634,
      "cms": 4635,
      "fall": 4636,
      "##74": 4637,
      "usage": 4638,
      "remove": 4639,
      "developer": 4640,
      "entity": 4641,
      "purposes": 4642,
      "palo": 4643,
      "condition": 4644,
      "hold": 4645,
      "##ait": 4646,
      "##ground": 4647,
      "##ects": 4648,
      "leading": 4649,
      "great": 4650,
      "cluster": 4651,
      "gate": 4652,
      "jp": 4653,
      "##82": 4654,
      "##lied": 4655,
      "##aris": 4656,
      "##otal": 4657,
      "strict": 4658,
      "obfuscation": 4659,
      "history": 4660,
      "##oon": 4661,
      "##dd": 4662,
      "cost": 4663,
      "shut": 4664,
      "writing": 4665,
      "hashes": 4666,
      "##54": 4667,
      "alloc": 4668,
      "game": 4669,
      "##03": 4670,
      "attention": 4671,
      "commerc": 4672,
      "situ": 4673,
      "gmail": 4674,
      "uint": 4675,
      "##dk": 4676,
      "aff": 4677,
      "flaws": 4678,
      "initially": 4679,
      "escal": 4680,
      "obfuscated": 4681,
      "58": 4682,
      "job": 4683,
      "lear": 4684,
      "##unt": 4685,
      "weak": 4686,
      "timer": 4687,
      "minid": 4688,
      "central": 4689,
      "continued": 4690,
      "confirm": 4691,
      "syrian": 4692,
      "dragon": 4693,
      "io": 4694,
      "##etr": 4695,
      "respect": 4696,
      "banks": 4697,
      "static": 4698,
      "disclosure": 4699,
      "cgi": 4700,
      "ger": 4701,
      "##iries": 4702,
      "arab": 4703,
      "hacked": 4704,
      "fixed": 4705,
      "aim": 4706,
      "##76": 4707,
      "##eric": 4708,
      "true": 4709,
      "supported": 4710,
      "eston": 4711,
      "##script": 4712,
      "mysql": 4713,
      "69": 4714,
      "lure": 4715,
      "asia": 4716,
      "##ffic": 4717,
      "opened": 4718,
      "etc": 4719,
      "physical": 4720,
      "ful": 4721,
      "xxx": 4722,
      "##system": 4723,
      "pattern": 4724,
      "believed": 4725,
      "labs": 4726,
      "##lib": 4727,
      "##ided": 4728,
      "she": 4729,
      "startup": 4730,
      "european": 4731,
      "ax": 4732,
      "tin": 4733,
      "area": 4734,
      "agencies": 4735,
      "examples": 4736,
      "max": 4737,
      "practices": 4738,
      "##01": 4739,
      "##ening": 4740,
      "vendor": 4741,
      "inquiries": 4742,
      "distinct": 4743,
      "sets": 4744,
      "graph": 4745,
      "##wards": 4746,
      "retrieve": 4747,
      "##ography": 4748,
      "discussed": 4749,
      "66": 4750,
      "##ush": 4751,
      "categ": 4752,
      "##79": 4753,
      "unauth": 4754,
      "remov": 4755,
      "injected": 4756,
      "apt41": 4757,
      "effective": 4758,
      "compressed": 4759,
      "reverse": 4760,
      "sil": 4761,
      "thous": 4762,
      "##ane": 4763,
      "scr": 4764,
      "##thing": 4765,
      "183": 4766,
      "restricted": 4767,
      "arbitrary": 4768,
      "##thon": 4769,
      "nov": 4770,
      "works": 4771,
      "english": 4772,
      "six": 4773,
      "criminals": 4774,
      "telec": 4775,
      "double": 4776,
      "temporary": 4777,
      "bul": 4778,
      "hk": 4779,
      "mat": 4780,
      "##ened": 4781,
      "continues": 4782,
      "review": 4783,
      "tasks": 4784,
      "tls": 4785,
      "dependent": 4786,
      "##airs": 4787,
      "institutions": 4788,
      "saved": 4789,
      "providers": 4790,
      "smart": 4791,
      "trav": 4792,
      "##izing": 4793,
      "manip": 4794,
      "performed": 4795,
      "resolves": 4796,
      "win32k": 4797,
      "tunes": 4798,
      "##ring": 4799,
      "ids": 4800,
      "suspicious": 4801,
      "anonymous": 4802,
      "elev": 4803,
      "bill": 4804,
      "came": 4805,
      "vo": 4806,
      "##69": 4807,
      "legal": 4808,
      "stealth": 4809,
      "capture": 4810,
      "sponsored": 4811,
      "led": 4812,
      "na": 4813,
      "##eb": 4814,
      "forens": 4815,
      "doesn": 4816,
      "drops": 4817,
      "trojans": 4818,
      "initi": 4819,
      "easy": 4820,
      "delivery": 4821,
      "font": 4822,
      "##05": 4823,
      "##49": 4824,
      "##eline": 4825,
      "disable": 4826,
      "dukes": 4827,
      "peoples": 4828,
      "false": 4829,
      "magic": 4830,
      "normal": 4831,
      "##dr": 4832,
      "##tered": 4833,
      "longer": 4834,
      "dere": 4835,
      "##orm": 4836,
      "deal": 4837,
      "##osition": 4838,
      "clean": 4839,
      "remains": 4840,
      "ghost": 4841,
      "san": 4842,
      "##vant": 4843,
      "##ived": 4844,
      "whois": 4845,
      "posted": 4846,
      "worm": 4847,
      "question": 4848,
      "dissect": 4849,
      "bar": 4850,
      "##62": 4851,
      "##inst": 4852,
      "too": 4853,
      "enh": 4854,
      "hostname": 4855,
      "refl": 4856,
      "identifier": 4857,
      "vmware": 4858,
      "live": 4859,
      "forces": 4860,
      "serious": 4861,
      "##spy": 4862,
      "##ipher": 4863,
      "otherwise": 4864,
      "hole": 4865,
      "similarities": 4866,
      "starting": 4867,
      "cybercriminals": 4868,
      "59": 4869,
      "rend": 4870,
      "##04": 4871,
      "##0st": 4872,
      "##rodu": 4873,
      "scale": 4874,
      "accessing": 4875,
      "encoding": 4876,
      "clears": 4877,
      "leaked": 4878,
      "fully": 4879,
      "75": 4880,
      "ke": 4881,
      "correct": 4882,
      "attributed": 4883,
      "strategy": 4884,
      "peoplesoft": 4885,
      "ie": 4886,
      "rar": 4887,
      "##cement": 4888,
      "checking": 4889,
      "term": 4890,
      "gh0st": 4891,
      "role": 4892,
      "python": 4893,
      "removed": 4894,
      "commercial": 4895,
      "got": 4896,
      "pak": 4897,
      "##map": 4898,
      "##cat": 4899,
      "alto": 4900,
      "registrant": 4901,
      "portal": 4902,
      "terminal": 4903,
      "depending": 4904,
      "hund": 4905,
      "lists": 4906,
      "yah": 4907,
      "pla": 4908,
      "smb": 4909,
      "vendors": 4910,
      "something": 4911,
      "array": 4912,
      "transp": 4913,
      "hundred": 4914,
      "mid": 4915,
      "##56": 4916,
      "##78": 4917,
      "##aster": 4918,
      "##lom": 4919,
      "widely": 4920,
      "stream": 4921,
      "ioc": 4922,
      "wann": 4923,
      "##ulate": 4924,
      "excl": 4925,
      "better": 4926,
      "solaris": 4927,
      "findings": 4928,
      "alleged": 4929,
      "##eness": 4930,
      "##reme": 4931,
      "edit": 4932,
      "title": 4933,
      "dereference": 4934,
      "give": 4935,
      "hong": 4936,
      "##83": 4937,
      "##br": 4938,
      "##72": 4939,
      "##idel": 4940,
      "processing": 4941,
      "steps": 4942,
      "fields": 4943,
      "illust": 4944,
      "brie": 4945,
      "tal": 4946,
      "##52": 4947,
      "##orted": 4948,
      "manage": 4949,
      "warning": 4950,
      "increased": 4951,
      "sometimes": 4952,
      "apparently": 4953,
      "affairs": 4954,
      "wannac": 4955,
      "lnk": 4956,
      "ports": 4957,
      "##09": 4958,
      "##ides": 4959,
      "##iff": 4960,
      "miniduke": 4961,
      "##he": 4962,
      "##fo": 4963,
      "##upd": 4964,
      "manuf": 4965,
      "realplayer": 4966,
      "disabled": 4967,
      "lay": 4968,
      "pn": 4969,
      "rely": 4970,
      "heav": 4971,
      "##conn": 4972,
      "headers": 4973,
      "consistent": 4974,
      "watering": 4975,
      "german": 4976,
      "manufact": 4977,
      "dang": 4978,
      "ps": 4979,
      "##59": 4980,
      "##estern": 4981,
      "caus": 4982,
      "##ape": 4983,
      "encoun": 4984,
      "templ": 4985,
      "sectors": 4986,
      "kong": 4987,
      "pdb": 4988,
      "##81": 4989,
      "##51": 4990,
      "inser": 4991,
      "army": 4992,
      "identifying": 4993,
      "overwrite": 4994,
      "workstations": 4995,
      "secret": 4996,
      "##nd": 4997,
      "##iation": 4998,
      "think": 4999,
      "##ino": 5000,
      "unus": 5001,
      "##pped": 5002,
      "moder": 5003,
      "eastern": 5004,
      "lotus": 5005,
      "necessary": 5006,
      "returns": 5007,
      "lif": 5008,
      "##46": 5009,
      "##pping": 5010,
      "executables": 5011,
      "loads": 5012,
      "trusted": 5013,
      "elements": 5014,
      "electronic": 5015,
      "assisted": 5016,
      "mr": 5017,
      "western": 5018,
      "##lab": 5019,
      "##sequently": 5020,
      "identical": 5021,
      "calling": 5022,
      "polit": 5023,
      "redu": 5024,
      "dip": 5025,
      "interests": 5026,
      "##illance": 5027,
      "exploiting": 5028,
      "guest": 5029,
      "leveraged": 5030,
      "presented": 5031,
      "options": 5032,
      "wannacry": 5033,
      "gif": 5034,
      "##nit": 5035,
      "##dll": 5036,
      "##ins": 5037,
      "webpage": 5038,
      "emb": 5039,
      "investigations": 5040,
      "businesses": 5041,
      "deployment": 5042,
      "skill": 5043,
      "overlap": 5044,
      "publisher": 5045,
      "pakistan": 5046,
      "fa": 5047,
      "jre": 5048,
      "##vice": 5049,
      "attacked": 5050,
      "overall": 5051,
      "americ": 5052,
      "7e": 5053,
      "##dom": 5054,
      "##iant": 5055,
      "##pace": 5056,
      "spl": 5057,
      "chr": 5058,
      "model": 5059,
      "patches": 5060,
      "blocked": 5061,
      "showing": 5062,
      "surveillance": 5063,
      "##oper": 5064,
      "##ming": 5065,
      "##iced": 5066,
      "coded": 5067,
      "unp": 5068,
      "hosp": 5069,
      "industries": 5070,
      "6f": 5071,
      "kit": 5072,
      "rap": 5073,
      "struct": 5074,
      "##pth": 5075,
      "##ortun": 5076,
      "opportun": 5077,
      "eb": 5078,
      "icon": 5079,
      "##fly": 5080,
      "##ii": 5081,
      "prepar": 5082,
      "callback": 5083,
      "signatures": 5084,
      "ide": 5085,
      "piv": 5086,
      "##cf": 5087,
      "##bu": 5088,
      "##val": 5089,
      "##57": 5090,
      "##ulated": 5091,
      "compet": 5092,
      "super": 5093,
      "logging": 5094,
      "##ogn": 5095,
      "##boot": 5096,
      "calc": 5097,
      "directories": 5098,
      "analysts": 5099,
      "land": 5100,
      "##91": 5101,
      "##ients": 5102,
      "##43": 5103,
      "##arks": 5104,
      "##utes": 5105,
      "parts": 5106,
      "intercept": 5107,
      "connects": 5108,
      "##ology": 5109,
      "copies": 5110,
      "continu": 5111,
      "histor": 5112,
      "ltd": 5113,
      "##07": 5114,
      "neg": 5115,
      "copied": 5116,
      "appropri": 5117,
      "movement": 5118,
      "thousands": 5119,
      "bund": 5120,
      "##aa": 5121,
      "expected": 5122,
      "##alleng": 5123,
      "pred": 5124,
      "stores": 5125,
      "terms": 5126,
      "relevant": 5127,
      "resulting": 5128,
      "adversaries": 5129,
      "circum": 5130,
      "style": 5131,
      "edu": 5132,
      "##haps": 5133,
      "##unction": 5134,
      "item": 5135,
      "challeng": 5136,
      "loss": 5137,
      "perhaps": 5138,
      "virust": 5139,
      "civ": 5140,
      "gm": 5141,
      "ns": 5142,
      "rules": 5143,
      "##mi": 5144,
      "coord": 5145,
      "codes": 5146,
      "train": 5147,
      "listing": 5148,
      "police": 5149,
      "carry": 5150,
      "strictions": 5151,
      "travers": 5152,
      "tv": 5153,
      "##ht": 5154,
      "##42": 5155,
      "##wave": 5156,
      "images": 5157,
      "toolset": 5158,
      "decode": 5159,
      "clearly": 5160,
      "virustotal": 5161,
      "aj": 5162,
      "cat": 5163,
      "ow": 5164,
      "rad": 5165,
      "ways": 5166,
      "passed": 5167,
      "connecting": 5168,
      "didn": 5169,
      "resolved": 5170,
      "georgia": 5171,
      "99": 5172,
      "light": 5173,
      "##08": 5174,
      "conver": 5175,
      "generic": 5176,
      "generate": 5177,
      "interestingly": 5178,
      "exfiltration": 5179,
      "understanding": 5180,
      "advertisements": 5181,
      "weapon": 5182,
      "disrupt": 5183,
      "yahoo": 5184,
      "hxx": 5185,
      "contract": 5186,
      "notes": 5187,
      "2006": 5188,
      "generally": 5189,
      "writes": 5190,
      "ult": 5191,
      "actively": 5192,
      "else": 5193,
      "libr": 5194,
      "compilation": 5195,
      "tax": 5196,
      "##han": 5197,
      "token": 5198,
      "und": 5199,
      "sure": 5200,
      "privately": 5201,
      "consists": 5202,
      "larger": 5203,
      "shares": 5204,
      "needed": 5205,
      "##peg": 5206,
      "citizen": 5207,
      "ey": 5208,
      "rang": 5209,
      "##lot": 5210,
      "blocks": 5211,
      "bounds": 5212,
      "mutex": 5213,
      "libraries": 5214,
      "ess": 5215,
      "wid": 5216,
      "##vious": 5217,
      "##53": 5218,
      "##ield": 5219,
      "##eter": 5220,
      "spam": 5221,
      "sole": 5222,
      "disgu": 5223,
      "firms": 5224,
      "rats": 5225,
      "attempted": 5226,
      "transm": 5227,
      "destruct": 5228,
      "civil": 5229,
      "##lu": 5230,
      "##pa": 5231,
      "typical": 5232,
      "overflows": 5233,
      "blue": 5234,
      "study": 5235,
      "opposition": 5236,
      "propag": 5237,
      "map": 5238,
      "##wh": 5239,
      "insp": 5240,
      "##itect": 5241,
      "sto": 5242,
      "scam": 5243,
      "obvious": 5244,
      "recogn": 5245,
      "generation": 5246,
      "ccount": 5247,
      "regarding": 5248,
      "aur": 5249,
      "fp": 5250,
      "gl": 5251,
      "ld": 5252,
      "##iar": 5253,
      "extensions": 5254,
      "displayed": 5255,
      "rtf": 5256,
      "panel": 5257,
      "##tunately": 5258,
      "fidel": 5259,
      "##hn": 5260,
      "##ading": 5261,
      "introdu": 5262,
      "supports": 5263,
      "remotely": 5264,
      "testing": 5265,
      "architect": 5266,
      "book": 5267,
      "compatible": 5268,
      "organisations": 5269,
      "nations": 5270,
      "##rame": 5271,
      "##erpr": 5272,
      "##inite": 5273,
      "plain": 5274,
      "highlight": 5275,
      "paths": 5276,
      "decomp": 5277,
      "attached": 5278,
      "automatic": 5279,
      "utilized": 5280,
      "economic": 5281,
      "##bor": 5282,
      "##down": 5283,
      "##73": 5284,
      "##ung": 5285,
      "onto": 5286,
      "##0000": 5287,
      "returned": 5288,
      "schedul": 5289,
      "ded": 5290,
      "men": 5291,
      "pid": 5292,
      "##ara": 5293,
      "##anet": 5294,
      "soon": 5295,
      "msie": 5296,
      "scheme": 5297,
      "dub": 5298,
      "foot": 5299,
      "vi": 5300,
      "##ager": 5301,
      "partners": 5302,
      "newly": 5303,
      "##ops": 5304,
      "needs": 5305,
      "relatively": 5306,
      "diplom": 5307,
      "##ron": 5308,
      "##58": 5309,
      "##ints": 5310,
      "##ench": 5311,
      "unable": 5312,
      "subst": 5313,
      "##itty": 5314,
      "storm": 5315,
      "transact": 5316,
      "performs": 5317,
      "trying": 5318,
      "independent": 5319,
      "save": 5320,
      "##atory": 5321,
      "goal": 5322,
      "grow": 5323,
      "someone": 5324,
      "respond": 5325,
      "##version": 5326,
      "references": 5327,
      "##names": 5328,
      "snake": 5329,
      "pipe": 5330,
      "wiper": 5331,
      "uncovered": 5332,
      "cd": 5333,
      "pse": 5334,
      "views": 5335,
      "##oll": 5336,
      "sof": 5337,
      "manually": 5338,
      "paid": 5339,
      "announ": 5340,
      "instructions": 5341,
      "gateway": 5342,
      "bad": 5343,
      "fbi": 5344,
      "ic": 5345,
      "rate": 5346,
      "rob": 5347,
      "##ilities": 5348,
      "multi": 5349,
      "break": 5350,
      "represents": 5351,
      "tunnel": 5352,
      "##06": 5353,
      "strike": 5354,
      "##agr": 5355,
      "timeline": 5356,
      "spyware": 5357,
      "destructive": 5358,
      "aurora": 5359,
      "sen": 5360,
      "##da": 5361,
      "##erver": 5362,
      "##info": 5363,
      "##abor": 5364,
      "asc": 5365,
      "span": 5366,
      "depth": 5367,
      "apply": 5368,
      "privacy": 5369,
      "largest": 5370,
      "profil": 5371,
      "failure": 5372,
      "ttp": 5373,
      "##fx": 5374,
      "notable": 5375,
      "anyone": 5376,
      "downloading": 5377,
      "browsing": 5378,
      "##ancy": 5379,
      "school": 5380,
      "questions": 5381,
      "improper": 5382,
      "corresponding": 5383,
      "motivated": 5384,
      "hear": 5385,
      "##zz": 5386,
      "##ested": 5387,
      "parser": 5388,
      "terr": 5389,
      "solution": 5390,
      "insight": 5391,
      "extracted": 5392,
      "achieve": 5393,
      "flex": 5394,
      "hol": 5395,
      "mand": 5396,
      "sess": 5397,
      "##ctl": 5398,
      "altern": 5399,
      "installs": 5400,
      "scanning": 5401,
      "constant": 5402,
      "considered": 5403,
      "half": 5404,
      "##a4": 5405,
      "##wide": 5406,
      "##iter": 5407,
      "##itness": 5408,
      "##acing": 5409,
      "prom": 5410,
      "##imum": 5411,
      "deep": 5412,
      "feed": 5413,
      "entries": 5414,
      "democ": 5415,
      "digit": 5416,
      "begins": 5417,
      "determined": 5418,
      "educ": 5419,
      "89": 5420,
      "nav": 5421,
      "##ties": 5422,
      "cob": 5423,
      "##user": 5424,
      "proceed": 5425,
      "signing": 5426,
      "msg": 5427,
      "originally": 5428,
      "involve": 5429,
      "carried": 5430,
      "extensive": 5431,
      "sharepoint": 5432,
      "fidelis": 5433,
      "500": 5434,
      "her": 5435,
      "push": 5436,
      "tre": 5437,
      "##ters": 5438,
      "##ao": 5439,
      "saw": 5440,
      "parties": 5441,
      "referred": 5442,
      "router": 5443,
      "artif": 5444,
      "gathering": 5445,
      "54": 5446,
      "cipher": 5447,
      "pitty": 5448,
      "ren": 5449,
      "sle": 5450,
      "ﬁle": 5451,
      "##more": 5452,
      "##ua": 5453,
      "##eless": 5454,
      "armed": 5455,
      "updating": 5456,
      "foundation": 5457,
      "extreme": 5458,
      "indicating": 5459,
      "employed": 5460,
      "suspected": 5461,
      "cf": 5462,
      "dir": 5463,
      "ever": 5464,
      "layer": 5465,
      "sams": 5466,
      "##aming": 5467,
      "##sphere": 5468,
      "pret": 5469,
      "pointed": 5470,
      "employee": 5471,
      "expert": 5472,
      "matches": 5473,
      "parsing": 5474,
      "hundreds": 5475,
      "il": 5476,
      "oce": 5477,
      "zh": 5478,
      "reboot": 5479,
      "bey": 5480,
      "crew": 5481,
      "ulnerabilities": 5482,
      "sold": 5483,
      "arguments": 5484,
      "enforcement": 5485,
      "nuc": 5486,
      "##unic": 5487,
      "serve": 5488,
      "keyst": 5489,
      "setup": 5490,
      "factor": 5491,
      "studio": 5492,
      "professional": 5493,
      "ivy": 5494,
      "67": 5495,
      "ly": 5496,
      "##dec": 5497,
      "##agent": 5498,
      "notice": 5499,
      "disput": 5500,
      "toolkit": 5501,
      "activists": 5502,
      "meet": 5503,
      "suspect": 5504,
      "sophistication": 5505,
      "selected": 5506,
      "master": 5507,
      "enhanced": 5508,
      "beyond": 5509,
      "grid": 5510,
      "ig": 5511,
      "repe": 5512,
      "ipv": 5513,
      "personnel": 5514,
      "##fficient": 5515,
      "illustr": 5516,
      "73": 5517,
      "tiv": 5518,
      "vps": 5519,
      "##text": 5520,
      "##eet": 5521,
      "##adata": 5522,
      "shock": 5523,
      "dates": 5524,
      "##fully": 5525,
      "databases": 5526,
      "piece": 5527,
      "measures": 5528,
      "appropriate": 5529,
      "sessions": 5530,
      "015": 5531,
      "cm": 5532,
      "dc": 5533,
      "##ric": 5534,
      "##ered": 5535,
      "##ining": 5536,
      "phish": 5537,
      "logic": 5538,
      "showed": 5539,
      "failed": 5540,
      "socket": 5541,
      "ll": 5542,
      "race": 5543,
      "##junction": 5544,
      "ans": 5545,
      "atl": 5546,
      "##usions": 5547,
      "relies": 5548,
      "gets": 5549,
      "describe": 5550,
      "environments": 5551,
      "meaning": 5552,
      "sednit": 5553,
      "keylogger": 5554,
      "##install": 5555,
      "bt": 5556,
      "bind": 5557,
      "tell": 5558,
      "serial": 5559,
      "##odes": 5560,
      "unauthor": 5561,
      "embass": 5562,
      "ep": 5563,
      "##admin": 5564,
      "proof": 5565,
      "##ifications": 5566,
      "uploading": 5567,
      "owned": 5568,
      "permission": 5569,
      "sell": 5570,
      "wed": 5571,
      "##hold": 5572,
      "##inet": 5573,
      "##osen": 5574,
      "defined": 5575,
      "attempting": 5576,
      "characteristics": 5577,
      "brief": 5578,
      "##update": 5579,
      "cpp": 5580,
      "wave": 5581,
      "##eks": 5582,
      "exception": 5583,
      "##ends": 5584,
      "##web": 5585,
      "front": 5586,
      "secondary": 5587,
      "leverage": 5588,
      "filenames": 5589,
      "effectively": 5590,
      "nuclear": 5591,
      "none": 5592,
      "##ulas": 5593,
      "expect": 5594,
      "opera": 5595,
      "newer": 5596,
      "attributes": 5597,
      "limit": 5598,
      "tradem": 5599,
      "tranch": 5600,
      "0c": 5601,
      "83": 5602,
      "tri": 5603,
      "##head": 5604,
      "##iﬁ": 5605,
      "##reg": 5606,
      "alph": 5607,
      "unr": 5608,
      "##chost": 5609,
      "expos": 5610,
      "##ublic": 5611,
      "2004": 5612,
      "building": 5613,
      "restrictions": 5614,
      "audio": 5615,
      "estonia": 5616,
      "exclus": 5617,
      "ajax": 5618,
      "shockwave": 5619,
      "68": 5620,
      "him": 5621,
      "mir": 5622,
      "##ats": 5623,
      "ing": 5624,
      "conjunction": 5625,
      "##ending": 5626,
      "phase": 5627,
      "disp": 5628,
      "auto": 5629,
      "enables": 5630,
      "safety": 5631,
      "intranet": 5632,
      "belonging": 5633,
      "unclear": 5634,
      "removable": 5635,
      "forensic": 5636,
      "traversal": 5637,
      "solely": 5638,
      "dial": 5639,
      "fusion": 5640,
      "##cr": 5641,
      "inn": 5642,
      "##ars": 5643,
      "##ope": 5644,
      "443": 5645,
      "turla": 5646,
      "nearly": 5647,
      "tranchulas": 5648,
      "bud": 5649,
      "wir": 5650,
      "##lm": 5651,
      "theme": 5652,
      "receives": 5653,
      "combination": 5654,
      "closely": 5655,
      "essential": 5656,
      "2e": 5657,
      "6c": 5658,
      "blob": 5659,
      "##au": 5660,
      "##ko": 5661,
      "cooper": 5662,
      "stated": 5663,
      "stages": 5664,
      "affil": 5665,
      "gov": 5666,
      "goes": 5667,
      "confidence": 5668,
      "useful": 5669,
      "decided": 5670,
      "lines": 5671,
      "assigned": 5672,
      "metadata": 5673,
      "became": 5674,
      "interested": 5675,
      "utility": 5676,
      "mails": 5677,
      "position": 5678,
      "svchost": 5679,
      "submitted": 5680,
      "sofacy": 5681,
      "90": 5682,
      "cache": 5683,
      "hi": 5684,
      "##fig": 5685,
      "cosm": 5686,
      "unfor": 5687,
      "chosen": 5688,
      "##letin": 5689,
      "extracting": 5690,
      "electric": 5691,
      "prompt": 5692,
      "escalation": 5693,
      "clearsky": 5694,
      "transport": 5695,
      "unusual": 5696,
      "modern": 5697,
      "eye": 5698,
      "202": 5699,
      "ones": 5700,
      "stri": 5701,
      "##ught": 5702,
      "decrypts": 5703,
      "sequences": 5704,
      "harv": 5705,
      "flow": 5706,
      "vb": 5707,
      "worth": 5708,
      "except": 5709,
      "sham": 5710,
      "seven": 5711,
      "system32": 5712,
      "imperson": 5713,
      "reportedly": 5714,
      "##iki": 5715,
      "##ographic": 5716,
      "keystro": 5717,
      "fox": 5718,
      "ris": 5719,
      "ten": 5720,
      "##icated": 5721,
      "seg": 5722,
      "emiss": 5723,
      "hex": 5724,
      "surpr": 5725,
      "screenshots": 5726,
      "japanese": 5727,
      "tiny": 5728,
      "circumst": 5729,
      "##iers": 5730,
      "##anted": 5731,
      "err": 5732,
      "referenced": 5733,
      "guid": 5734,
      "eset": 5735,
      "redirected": 5736,
      "picture": 5737,
      "fing": 5738,
      "fak": 5739,
      "wp": 5740,
      "things": 5741,
      "weeks": 5742,
      "nothing": 5743,
      "expand": 5744,
      "##ube": 5745,
      "owners": 5746,
      "recorded": 5747,
      "hijacking": 5748,
      "emissary": 5749,
      "gas": 5750,
      "hat": 5751,
      "soci": 5752,
      "applied": 5753,
      "2005": 5754,
      "handles": 5755,
      "visibility": 5756,
      "minutes": 5757,
      "election": 5758,
      "##espionage": 5759,
      "rule": 5760,
      "benef": 5761,
      "batch": 5762,
      "cab": 5763,
      "##uable": 5764,
      "##etch": 5765,
      "reload": 5766,
      "concept": 5767,
      "republic": 5768,
      "manner": 5769,
      "cyberespionage": 5770,
      "installing": 5771,
      "communicates": 5772,
      "handled": 5773,
      "worldwide": 5774,
      "breaches": 5775,
      "suggesting": 5776,
      "strongly": 5777,
      "##host": 5778,
      "isis": 5779,
      "exh": 5780,
      "##pper": 5781,
      "caused": 5782,
      "adding": 5783,
      "properties": 5784,
      "mostly": 5785,
      "clos": 5786,
      "teams": 5787,
      "lateral": 5788,
      "authority": 5789,
      "aspx": 5790,
      "rapid": 5791,
      "extremely": 5792,
      "mp": 5793,
      "won": 5794,
      "##era": 5795,
      "reli": 5796,
      "##irt": 5797,
      "finspy": 5798,
      "frequ": 5799,
      "##ously": 5800,
      "automated": 5801,
      "##process": 5802,
      "oc": 5803,
      "##iom": 5804,
      "##where": 5805,
      "##ories": 5806,
      "suc": 5807,
      "##udi": 5808,
      "abs": 5809,
      "difference": 5810,
      "publication": 5811,
      "words": 5812,
      "bugs": 5813,
      "cobalt": 5814,
      "ptr": 5815,
      "sam": 5816,
      "tues": 5817,
      "##roy": 5818,
      "##unk": 5819,
      "reads": 5820,
      "forms": 5821,
      "powerpoint": 5822,
      "completely": 5823,
      "visitors": 5824,
      "compared": 5825,
      "coordin": 5826,
      "ultimately": 5827,
      "415": 5828,
      "box": 5829,
      "div": 5830,
      "##cle": 5831,
      "##ker": 5832,
      "shim": 5833,
      "apt30": 5834,
      "observ": 5835,
      "tested": 5836,
      "projects": 5837,
      "reasons": 5838,
      "macros": 5839,
      "elevation": 5840,
      "##connect": 5841,
      "dubbed": 5842,
      "##path": 5843,
      "##isms": 5844,
      "isn": 5845,
      "correl": 5846,
      "describes": 5847,
      "greater": 5848,
      "cyberspace": 5849,
      "xls": 5850,
      "ali": 5851,
      "aler": 5852,
      "influ": 5853,
      "gained": 5854,
      "##sapp": 5855,
      "guard": 5856,
      "exfiltrated": 5857,
      "decompress": 5858,
      "affili": 5859,
      "unfortunately": 5860,
      "88": 5861,
      "cro": 5862,
      "mater": 5863,
      "qual": 5864,
      "rdp": 5865,
      "##eries": 5866,
      "unified": 5867,
      "##liest": 5868,
      "overview": 5869,
      "agre": 5870,
      "performing": 5871,
      "analyzing": 5872,
      "claimed": 5873,
      "slight": 5874,
      "incorpor": 5875,
      "improve": 5876,
      "forums": 5877,
      "journalists": 5878,
      "artifacts": 5879,
      "6e": 5880,
      "bure": 5881,
      "##cd": 5882,
      "spot": 5883,
      "scope": 5884,
      "accomp": 5885,
      "##umb": 5886,
      "doing": 5887,
      "differences": 5888,
      "offers": 5889,
      "##server": 5890,
      "helps": 5891,
      "labor": 5892,
      "furthermore": 5893,
      "corporation": 5894,
      "##omplete": 5895,
      "png": 5896,
      "hospital": 5897,
      "dedicated": 5898,
      "ascii": 5899,
      "shamoon": 5900,
      "0f": 5901,
      "fair": 5902,
      "hig": 5903,
      "##off": 5904,
      "##comm": 5905,
      "exit": 5906,
      "scar": 5907,
      "sov": 5908,
      "ago": 5909,
      "decl": 5910,
      "possibility": 5911,
      "french": 5912,
      "##lets": 5913,
      "seconds": 5914,
      "whatsapp": 5915,
      "earliest": 5916,
      "receiving": 5917,
      "implants": 5918,
      "construct": 5919,
      "exfiltrate": 5920,
      "jpg": 5921,
      "axiom": 5922,
      "##bound": 5923,
      "commiss": 5924,
      "arbor": 5925,
      "proven": 5926,
      "minor": 5927,
      "deletes": 5928,
      "spearph": 5929,
      "situation": 5930,
      "unauthorized": 5931,
      "awar": 5932,
      "nj": 5933,
      "sms": 5934,
      "wa": 5935,
      "##asion": 5936,
      "##leg": 5937,
      "##oli": 5938,
      "spok": 5939,
      "searches": 5940,
      "significantly": 5941,
      "interaction": 5942,
      "mimic": 5943,
      "reduce": 5944,
      "ttps": 5945,
      "material": 5946,
      "awareness": 5947,
      "bab": 5948,
      "wire": 5949,
      "##ood": 5950,
      "##rd": 5951,
      "##etary": 5952,
      "asked": 5953,
      "accessible": 5954,
      "valuable": 5955,
      "droppers": 5956,
      "csc": 5957,
      "equip": 5958,
      "georgian": 5959,
      "procedures": 5960,
      "blo": 5961,
      "sdk": 5962,
      "##ster": 5963,
      "stay": 5964,
      "story": 5965,
      "##elist": 5966,
      "unic": 5967,
      "recording": 5968,
      "lock": 5969,
      "monday": 5970,
      "mechanisms": 5971,
      "syria": 5972,
      "increasingly": 5973,
      "heavily": 5974,
      "split": 5975,
      "pin": 5976,
      "rpc": 5977,
      "viet": 5978,
      "##aid": 5979,
      "##port": 5980,
      "##orn": 5981,
      "##arter": 5982,
      "##any": 5983,
      "##isis": 5984,
      "union": 5985,
      "served": 5986,
      "##ief": 5987,
      "handsh": 5988,
      "lookup": 5989,
      "institute": 5990,
      "telecomm": 5991,
      "training": 5992,
      "architecture": 5993,
      "tuesday": 5994,
      "soviet": 5995,
      "ss": 5996,
      "xx": 5997,
      "##init": 5998,
      "##rote": 5999,
      "shot": 6000,
      "accur": 6001,
      "upgr": 6002,
      "infecting": 6003,
      "compromises": 6004,
      "generates": 6005,
      "winnt": 6006,
      "collabor": 6007,
      "gives": 6008,
      "analyze": 6009,
      "falcon": 6010,
      "dangerous": 6011,
      "answ": 6012,
      "vietnam": 6013,
      "bs": 6014,
      "nodes": 6015,
      "##urage": 6016,
      "notification": 6017,
      "lost": 6018,
      "doz": 6019,
      "##aves": 6020,
      "backspace": 6021,
      "##artext": 6022,
      "cleartext": 6023,
      "validation": 6024,
      "edition": 6025,
      "cryptography": 6026,
      "recipient": 6027,
      "telecommunic": 6028,
      "tries": 6029,
      "##hai": 6030,
      "conference": 6031,
      "##olution": 6032,
      "##ips": 6033,
      "subsequ": 6034,
      "investigating": 6035,
      "corrupt": 6036,
      "##xxxx": 6037,
      "pawn": 6038,
      "##mission": 6039,
      "aero": 6040,
      "pw": 6041,
      "sink": 6042,
      "uae": 6043,
      "##star": 6044,
      "comments": 6045,
      "##ivity": 6046,
      "1000": 6047,
      "infil": 6048,
      "typo": 6049,
      "intellect": 6050,
      "##shell": 6051,
      "believes": 6052,
      "collects": 6053,
      "equation": 6054,
      "dynamics": 6055,
      "familiar": 6056,
      "cybercrime": 6057,
      "apparent": 6058,
      "massive": 6059,
      "society": 6060,
      "subsequent": 6061,
      "332": 6062,
      "eg": 6063,
      "sab": 6064,
      "##fisher": 6065,
      "orch": 6066,
      "coming": 6067,
      "syn": 6068,
      "intent": 6069,
      "configure": 6070,
      "indicator": 6071,
      "controllers": 6072,
      "decoding": 6073,
      "replaced": 6074,
      "hangover": 6075,
      "hxxp": 6076,
      "winnti": 6077,
      "aerospace": 6078,
      "intellectual": 6079,
      "79": 6080,
      "fancy": 6081,
      "lux": 6082,
      "que": 6083,
      "raw": 6084,
      "wall": 6085,
      "##cut": 6086,
      "complet": 6087,
      "contribut": 6088,
      "appdata": 6089,
      "saudi": 6090,
      "logon": 6091,
      "infinite": 6092,
      "peer": 6093,
      "approx": 6094,
      "circl": 6095,
      "defenders": 6096,
      "iocs": 6097,
      "commission": 6098,
      "tail": 6099,
      "vary": 6100,
      "##aver": 6101,
      "##rc": 6102,
      "##cing": 6103,
      "##bd": 6104,
      "##b7": 6105,
      "##bre": 6106,
      "isol": 6107,
      "finfisher": 6108,
      "similarly": 6109,
      "viewer": 6110,
      "##eshark": 6111,
      "novell": 6112,
      "evolution": 6113,
      "pieces": 6114,
      "wireshark": 6115,
      "handshake": 6116,
      "mist": 6117,
      "vbs": 6118,
      "##avel": 6119,
      "iph": 6120,
      "configurations": 6121,
      "indeed": 6122,
      "largely": 6123,
      "randomly": 6124,
      "orchest": 6125,
      "rare": 6126,
      "wrote": 6127,
      "yes": 6128,
      "areas": 6129,
      "hope": 6130,
      "purch": 6131,
      "speak": 6132,
      "carbon": 6133,
      "higher": 6134,
      "300": 6135,
      "##sec": 6136,
      "##fa": 6137,
      "reset": 6138,
      "netw": 6139,
      "networking": 6140,
      "hardware": 6141,
      "contacted": 6142,
      "clicking": 6143,
      "sophos": 6144,
      "thought": 6145,
      "builder": 6146,
      "inquire": 6147,
      "explained": 6148,
      "fingerpr": 6149,
      "bat": 6150,
      "##ran": 6151,
      "##ama": 6152,
      "websphere": 6153,
      "whole": 6154,
      "offensive": 6155,
      "##rator": 6156,
      "##cont": 6157,
      "tivoli": 6158,
      "spearphishing": 6159,
      "equipment": 6160,
      "mor": 6161,
      "##mark": 6162,
      "##care": 6163,
      "##yy": 6164,
      "##anch": 6165,
      "##roup": 6166,
      "##api": 6167,
      "##service": 6168,
      "apis": 6169,
      "leads": 6170,
      "authorities": 6171,
      "summary": 6172,
      "timestamps": 6173,
      "trademarks": 6174,
      "hikit": 6175,
      "##ki": 6176,
      "tom": 6177,
      "##ingly": 6178,
      "##ifies": 6179,
      "mood": 6180,
      "scada": 6181,
      "##acted": 6182,
      "##ounts": 6183,
      "placed": 6184,
      "rundll": 6185,
      "queries": 6186,
      "buy": 6187,
      "particip": 6188,
      "classified": 6189,
      "destroy": 6190,
      "combined": 6191,
      "channels": 6192,
      "recovered": 6193,
      "infiltr": 6194,
      "sis": 6195,
      "2000": 6196,
      "chief": 6197,
      "deb": 6198,
      "background": 6199,
      "severe": 6200,
      "centre": 6201,
      "conducting": 6202,
      "clicks": 6203,
      "##hotel": 6204,
      "template": 6205,
      "##agram": 6206,
      "ga": 6207,
      "tar": 6208,
      "##opt": 6209,
      "##ma": 6210,
      "##inter": 6211,
      "asian": 6212,
      "asert": 6213,
      "##cho": 6214,
      "asset": 6215,
      "messaging": 6216,
      "consult": 6217,
      "experience": 6218,
      "middleware": 6219,
      "darkhotel": 6220,
      "satell": 6221,
      "photos": 6222,
      "federal": 6223,
      "dialog": 6224,
      "errors": 6225,
      "moodle": 6226,
      "91": 6227,
      "jpeg": 6228,
      "tion": 6229,
      "really": 6230,
      "##ament": 6231,
      "paral": 6232,
      "arm": 6233,
      "keyboard": 6234,
      "posts": 6235,
      "leverages": 6236,
      "kr": 6237,
      "king": 6238,
      "rub": 6239,
      "sony": 6240,
      "tc": 6241,
      "watch": 6242,
      "##itory": 6243,
      "##alent": 6244,
      "coup": 6245,
      "scamm": 6246,
      "##loader": 6247,
      "repos": 6248,
      "door": 6249,
      "evade": 6250,
      "mainly": 6251,
      "engag": 6252,
      "192": 6253,
      "letter": 6254,
      "mandiant": 6255,
      "gn": 6256,
      "##b5": 6257,
      "##di": 6258,
      "##disk": 6259,
      "##dra": 6260,
      "##oned": 6261,
      "beij": 6262,
      "##omes": 6263,
      "ads": 6264,
      "##ios": 6265,
      "folders": 6266,
      "specify": 6267,
      "locally": 6268,
      "128": 6269,
      "leaders": 6270,
      "problems": 6271,
      "comparison": 6272,
      "derived": 6273,
      "unlikely": 6274,
      "matter": 6275,
      "senior": 6276,
      "approximately": 6277,
      "nc": 6278,
      "pm": 6279,
      "udp": 6280,
      "xt": 6281,
      "##rive": 6282,
      "noticed": 6283,
      "phil": 6284,
      "remed": 6285,
      "extr": 6286,
      "presum": 6287,
      "empty": 6288,
      "changing": 6289,
      "detecting": 6290,
      "##center": 6291,
      "fraudul": 6292,
      "shadows": 6293,
      "ghostnet": 6294,
      "life": 6295,
      "##domain": 6296,
      "cur": 6297,
      "flo": 6298,
      "lic": 6299,
      "ng": 6300,
      "rol": 6301,
      "west": 6302,
      "yara": 6303,
      "##reh": 6304,
      "child": 6305,
      "shang": 6306,
      "interpr": 6307,
      "house": 6308,
      "115": 6309,
      "thanks": 6310,
      "indicated": 6311,
      "meant": 6312,
      "initialization": 6313,
      "joint": 6314,
      "propri": 6315,
      "ioctl": 6316,
      "bulletin": 6317,
      "structures": 6318,
      "shanghai": 6319,
      "eu": 6320,
      "pcc": 6321,
      "tied": 6322,
      "##3c": 6323,
      "##3d": 6324,
      "##aduke": 6325,
      "unw": 6326,
      "mosc": 6327,
      "bits": 6328,
      "plc": 6329,
      "ground": 6330,
      "eval": 6331,
      "compromising": 6332,
      "developing": 6333,
      "visiting": 6334,
      "finding": 6335,
      "brute": 6336,
      "swf": 6337,
      "crypto": 6338,
      "fails": 6339,
      "derus": 6340,
      "sleep": 6341,
      "beijing": 6342,
      "moscow": 6343,
      "om": 6344,
      "thing": 6345,
      "scams": 6346,
      "sea": 6347,
      "2002": 6348,
      "outage": 6349,
      "apt10": 6350,
      "worked": 6351,
      "communicating": 6352,
      "0x5": 6353,
      "sender": 6354,
      "256": 6355,
      "association": 6356,
      "browsers": 6357,
      "gui": 6358,
      "routers": 6359,
      "tactic": 6360,
      "spoofed": 6361,
      "exactly": 6362,
      "politically": 6363,
      "proprietary": 6364,
      "sip": 6365,
      "##nes": 6366,
      "coinc": 6367,
      "##uron": 6368,
      "##uge": 6369,
      "aren": 6370,
      "prefer": 6371,
      "occur": 6372,
      "shortcut": 6373,
      "crimea": 6374,
      "mission": 6375,
      "risks": 6376,
      "babar": 6377,
      "kim": 6378,
      "overs": 6379,
      "tab": 6380,
      "##rar": 6381,
      "trade": 6382,
      "metasp": 6383,
      "ack": 6384,
      "siem": 6385,
      "visible": 6386,
      "everything": 6387,
      "fixes": 6388,
      "millions": 6389,
      "regional": 6390,
      "germany": 6391,
      "bundle": 6392,
      "scheduled": 6393,
      "0158": 6394,
      "fakem": 6395,
      "metasploit": 6396,
      "away": 6397,
      "css": 6398,
      "lan": 6399,
      "zx": 6400,
      "##vm": 6401,
      "##xec": 6402,
      "##uts": 6403,
      "ars": 6404,
      "domest": 6405,
      "themes": 6406,
      "consid": 6407,
      "tracked": 6408,
      "existence": 6409,
      "responses": 6410,
      "tags": 6411,
      "weapons": 6412,
      "uint16": 6413,
      "bureau": 6414,
      "luxemb": 6415,
      "364": 6416,
      "##bol": 6417,
      "##ented": 6418,
      "##loys": 6419,
      "##adem": 6420,
      "##endar": 6421,
      "abuse": 6422,
      "111": 6423,
      "identification": 6424,
      "initialize": 6425,
      "classes": 6426,
      "protocols": 6427,
      "swift": 6428,
      "destination": 6429,
      "audit": 6430,
      "healthcare": 6431,
      "israeli": 6432,
      "gmt": 6433,
      "involvement": 6434,
      "95": 6435,
      "mm": 6436,
      "p2": 6437,
      "tain": 6438,
      "##oke": 6439,
      "##cript": 6440,
      "##bus": 6441,
      "##fd": 6442,
      "##ural": 6443,
      "alone": 6444,
      "##terns": 6445,
      "charg": 6446,
      "impress": 6447,
      "patterns": 6448,
      "dlls": 6449,
      "paying": 6450,
      "amounts": 6451,
      "##ikon": 6452,
      "intrusions": 6453,
      "procedure": 6454,
      "layout": 6455,
      "profiles": 6456,
      "repeated": 6457,
      "rundll32": 6458,
      "fast": 6459,
      "iex": 6460,
      "luc": 6461,
      "mind": 6462,
      "urob": 6463,
      "##lad": 6464,
      "##hol": 6465,
      "##aily": 6466,
      "parse": 6467,
      "##licit": 6468,
      "sap": 6469,
      "troy": 6470,
      "0x1": 6471,
      "indication": 6472,
      "##apped": 6473,
      "modifying": 6474,
      "movie": 6475,
      "hydra": 6476,
      "laboratory": 6477,
      "aust": 6478,
      "rich": 6479,
      "##lance": 6480,
      "##vent": 6481,
      "serves": 6482,
      "webc": 6483,
      "filesystem": 6484,
      "##002": 6485,
      "##ourg": 6486,
      "quarter": 6487,
      "modular": 6488,
      "extended": 6489,
      "##uros": 6490,
      "trusts": 6491,
      "maintains": 6492,
      "src": 6493,
      "naikon": 6494,
      "rendering": 6495,
      "keystrokes": 6496,
      "paralle": 6497,
      "luxembourg": 6498,
      "uroburos": 6499,
      "cas": 6500,
      "jsp": 6501,
      "ties": 6502,
      "ware": 6503,
      "##uration": 6504,
      "compreh": 6505,
      "incomplete": 6506,
      "emc": 6507,
      "places": 6508,
      "certainly": 6509,
      "triggered": 6510,
      "emergency": 6511,
      "encountered": 6512,
      "shimrat": 6513,
      "njrat": 6514,
      "typo3": 6515,
      "iter": 6516,
      "##tes": 6517,
      "##rv": 6518,
      "##rec": 6519,
      "##ray": 6520,
      "##ula": 6521,
      "syml": 6522,
      "traces": 6523,
      "subsystem": 6524,
      "presents": 6525,
      "168": 6526,
      "detections": 6527,
      "cloudduke": 6528,
      "collecting": 6529,
      "speaking": 6530,
      "physically": 6531,
      "ocx": 6532,
      "ran": 6533,
      "ug": 6534,
      "york": 6535,
      "##met": 6536,
      "##east": 6537,
      "##cu": 6538,
      "##ecure": 6539,
      "##ream": 6540,
      "##loud": 6541,
      "asking": 6542,
      "basis": 6543,
      "relay": 6544,
      "locate": 6545,
      "supposed": 6546,
      "occurs": 6547,
      "cookies": 6548,
      "production": 6549,
      "##paper": 6550,
      "atlant": 6551,
      "62": 6552,
      "cv": 6553,
      "dh": 6554,
      "night": 6555,
      "tue": 6556,
      "##arch": 6557,
      "##rol": 6558,
      "##iling": 6559,
      "##isions": 6560,
      "##acement": 6561,
      "moved": 6562,
      "incoming": 6563,
      "##antial": 6564,
      "plus": 6565,
      "offline": 6566,
      "0x00": 6567,
      "investigated": 6568,
      "warrant": 6569,
      "board": 6570,
      "cyberattacks": 6571,
      "alternative": 6572,
      "cbc": 6573,
      "kn": 6574,
      "tens": 6575,
      "ini": 6576,
      "towards": 6577,
      "usa": 6578,
      "contacts": 6579,
      "disables": 6580,
      "canada": 6581,
      "naming": 6582,
      "packages": 6583,
      "##phone": 6584,
      "branch": 6585,
      "enumerate": 6586,
      "recipients": 6587,
      "learn": 6588,
      "fairly": 6589,
      "5a": 6590,
      "jar": 6591,
      "##rt": 6592,
      "##lines": 6593,
      "##fl": 6594,
      "##add": 6595,
      "##oman": 6596,
      "chat": 6597,
      "crys": 6598,
      "seaduke": 6599,
      "adds": 6600,
      "disco": 6601,
      "passive": 6602,
      "academ": 6603,
      "observe": 6604,
      "509": 6605,
      "distribute": 6606,
      "cryptoc": 6607,
      "##ocket": 6608,
      "category": 6609,
      "growing": 6610,
      "gith": 6611,
      "ix": 6612,
      "##mon": 6613,
      "whit": 6614,
      "##formation": 6615,
      "102": 6616,
      "accesses": 6617,
      "requested": 6618,
      "irc": 6619,
      "##shop": 6620,
      "blogs": 6621,
      "aspects": 6622,
      "spreading": 6623,
      "practice": 6624,
      "choice": 6625,
      "citizens": 6626,
      "friday": 6627,
      "regularly": 6628,
      "diplomatic": 6629,
      "samsung": 6630,
      "incorporated": 6631,
      "symlink": 6632,
      "github": 6633,
      "held": 6634,
      "tick": 6635,
      "went": 6636,
      "yout": 6637,
      "##hh": 6638,
      "##hel": 6639,
      "##itors": 6640,
      "consequ": 6641,
      "##iding": 6642,
      "reco": 6643,
      "directed": 6644,
      "affects": 6645,
      "customized": 6646,
      "john": 6647,
      "displays": 6648,
      "botnets": 6649,
      "manufactur": 6650,
      "causing": 6651,
      "faq": 6652,
      "american": 6653,
      "disputed": 6654,
      "telecommunications": 6655,
      "fraudulent": 6656,
      "siemens": 6657,
      "97": 6658,
      "daily": 6659,
      "native": 6660,
      "##oul": 6661,
      "##ene": 6662,
      "##rix": 6663,
      "mof": 6664,
      "poor": 6665,
      "prevention": 6666,
      "terror": 6667,
      "duke": 6668,
      "cards": 6669,
      "hotel": 6670,
      "ceo": 6671,
      "ctu": 6672,
      "respectively": 6673,
      "billion": 6674,
      "cosmic": 6675,
      "iphone": 6676,
      "domestic": 6677,
      "crysys": 6678,
      "eax": 6679,
      "hom": 6680,
      "nar": 6681,
      "##oor": 6682,
      "##9b": 6683,
      "##d0": 6684,
      "##erce": 6685,
      "exerc": 6686,
      "##active": 6687,
      "iframe": 6688,
      "button": 6689,
      "defin": 6690,
      "##plug": 6691,
      "##exp": 6692,
      "levels": 6693,
      "eventually": 6694,
      "threads": 6695,
      "allegedly": 6696,
      "ranges": 6697,
      "democrat": 6698,
      "alpha": 6699,
      "slightly": 6700,
      "wireless": 6701,
      "engagement": 6702,
      "presumably": 6703,
      "cryptocurr": 6704,
      "77": 6705,
      "slow": 6706,
      "squ": 6707,
      "##su": 6708,
      "align": 6709,
      "seed": 6710,
      "sound": 6711,
      "##action": 6712,
      "documentation": 6713,
      "subs": 6714,
      "subsequently": 6715,
      "organized": 6716,
      "checked": 6717,
      "##apper": 6718,
      "strategies": 6719,
      "sections": 6720,
      "resolution": 6721,
      "convention": 6722,
      "consistently": 6723,
      "##ankba": 6724,
      "613": 6725,
      "fetch": 6726,
      "x86": 6727,
      "malvertis": 6728,
      "plans": 6729,
      "##enses": 6730,
      "princ": 6731,
      "assets": 6732,
      "quot": 6733,
      "modification": 6734,
      "modifications": 6735,
      "smtp": 6736,
      "portion": 6737,
      "implements": 6738,
      "facing": 6739,
      "exported": 6740,
      "hotels": 6741,
      "clusters": 6742,
      "##labs": 6743,
      "disguised": 6744,
      "transactions": 6745,
      "cosmicduke": 6746,
      "gang": 6747,
      "##eg": 6748,
      "##fb": 6749,
      "##fix": 6750,
      "##dl": 6751,
      "convers": 6752,
      "##comp": 6753,
      "docs": 6754,
      "anything": 6755,
      "assum": 6756,
      "encrypts": 6757,
      "underground": 6758,
      "uploads": 6759,
      "statistics": 6760,
      "leader": 6761,
      "southeast": 6762,
      "securelist": 6763,
      "remaining": 6764,
      "translation": 6765,
      "pictures": 6766,
      "owner": 6767,
      "announced": 6768,
      "reliable": 6769,
      "influence": 6770,
      "netwitness": 6771,
      "derusbi": 6772,
      "acknow": 6773,
      "78": 6774,
      "a1": 6775,
      "bah": 6776,
      "c7": 6777,
      "hw": 6778,
      "wait": 6779,
      "##mo": 6780,
      "##lishing": 6781,
      "##ny": 6782,
      "##200": 6783,
      "##url": 6784,
      "isl": 6785,
      "onion": 6786,
      "dead": 6787,
      "soap": 6788,
      "proxies": 6789,
      "resulted": 6790,
      "missing": 6791,
      "##html": 6792,
      "heart": 6793,
      "ocean": 6794,
      "comprehensive": 6795,
      "dup": 6796,
      "eight": 6797,
      "fu": 6798,
      "thurs": 6799,
      "ask": 6800,
      "deg": 6801,
      "assume": 6802,
      "assemb": 6803,
      "packed": 6804,
      "redacted": 6805,
      "objective": 6806,
      "analyt": 6807,
      "stealer": 6808,
      "##tool": 6809,
      "experi": 6810,
      "scanbox": 6811,
      "videos": 6812,
      "##eshe": 6813,
      "##news": 6814,
      "cooperation": 6815,
      "whitelist": 6816,
      "princip": 6817,
      "aver": 6818,
      "tg": 6819,
      "##ea": 6820,
      "##com": 6821,
      "##post": 6822,
      "##util": 6823,
      "consequently": 6824,
      "##amed": 6825,
      "crack": 6826,
      "instruction": 6827,
      "goals": 6828,
      "addressed": 6829,
      "payments": 6830,
      "programming": 6831,
      "methodology": 6832,
      "apart": 6833,
      "editor": 6834,
      "skype": 6835,
      "captured": 6836,
      "compression": 6837,
      "conditions": 6838,
      "carefully": 6839,
      "reflect": 6840,
      "viol": 6841,
      "harvest": 6842,
      "iexpl": 6843,
      "61398": 6844,
      "4c": 6845,
      "8d": 6846,
      "jbo": 6847,
      "kar": 6848,
      "tried": 6849,
      "##oss": 6850,
      "##master": 6851,
      "##noc": 6852,
      "##dis": 6853,
      "##ze": 6854,
      "##etype": 6855,
      "##etta": 6856,
      "##stan": 6857,
      "##lying": 6858,
      "##def": 6859,
      "suffer": 6860,
      "operates": 6861,
      "container": 6862,
      "listen": 6863,
      "perspect": 6864,
      "frag": 6865,
      "giving": 6866,
      "detects": 6867,
      "adaptive": 6868,
      "pivy": 6869,
      "wednes": 6870,
      "ixeshe": 6871,
      "thursday": 6872,
      "dav": 6873,
      "echo": 6874,
      "kitten": 6875,
      "mak": 6876,
      "nb": 6877,
      "wik": 6878,
      "##c0": 6879,
      "##bel": 6880,
      "unve": 6881,
      "decision": 6882,
      "evil": 6883,
      "perp": 6884,
      "engaged": 6885,
      "restart": 6886,
      "patching": 6887,
      "supporting": 6888,
      "symbol": 6889,
      "remained": 6890,
      "sale": 6891,
      "utilities": 6892,
      "refers": 6893,
      "embassy": 6894,
      "tcirt": 6895,
      "81": 6896,
      "dino": 6897,
      "jump": 6898,
      "##ca": 6899,
      "##flow": 6900,
      "##3a": 6901,
      "chapt": 6902,
      "committ": 6903,
      "appended": 6904,
      "science": 6905,
      "##liances": 6906,
      "hop": 6907,
      "aggress": 6908,
      "searching": 6909,
      "factors": 6910,
      "enterprises": 6911,
      "marked": 6912,
      "requirements": 6913,
      "commented": 6914,
      "shadow": 6915,
      "offered": 6916,
      "entirely": 6917,
      "education": 6918,
      "exclusively": 6919,
      "egypt": 6920,
      "fs": 6921,
      "hurr": 6922,
      "mong": 6923,
      "##hes": 6924,
      "##group": 6925,
      "##pad": 6926,
      "notified": 6927,
      "havex": 6928,
      "##lient": 6929,
      "timing": 6930,
      "installations": 6931,
      "highest": 6932,
      "draw": 6933,
      "establishing": 6934,
      "simpl": 6935,
      "facilit": 6936,
      "replace": 6937,
      "workstation": 6938,
      "exposure": 6939,
      "exhib": 6940,
      "arsen": 6941,
      "recovery": 6942,
      "wednesday": 6943,
      "6a": 6944,
      "76": 6945,
      "cell": 6946,
      "games": 6947,
      "gaming": 6948,
      "rot": 6949,
      "upp": 6950,
      "##mes": 6951,
      "##a2": 6952,
      "##cb": 6953,
      "##base": 6954,
      "cold": 6955,
      "uninstall": 6956,
      "exports": 6957,
      "##licate": 6958,
      "retail": 6959,
      "185": 6960,
      "breached": 6961,
      "trends": 6962,
      "smaller": 6963,
      "gathered": 6964,
      "novetta": 6965,
      "unpack": 6966,
      "highlighted": 6967,
      "vpsnoc": 6968,
      "##iﬁc": 6969,
      "ky": 6970,
      "pet": 6971,
      "tend": 6972,
      "##f5": 6973,
      "##dav": 6974,
      "##roll": 6975,
      "attacking": 6976,
      "shift": 6977,
      "interf": 6978,
      "neither": 6979,
      "107": 6980,
      "inclusion": 6981,
      "subdomain": 6982,
      "affecting": 6983,
      "quicktime": 6984,
      "turned": 6985,
      "professionals": 6986,
      "hydraq": 6987,
      "86": 6988,
      "bal": 6989,
      "lu": 6990,
      "mom": 6991,
      "sort": 6992,
      "sense": 6993,
      "tt": 6994,
      "##oting": 6995,
      "asa": 6996,
      "unix": 6997,
      "appliances": 6998,
      "bitter": 6999,
      "##apest": 7000,
      "dece": 7001,
      "##aving": 7002,
      "bots": 7003,
      "ready": 7004,
      "consum": 7005,
      "medical": 7006,
      "routines": 7007,
      "hooks": 7008,
      "assistance": 7009,
      "##hole": 7010,
      "disruption": 7011,
      "relationships": 7012,
      "federation": 7013,
      "causes": 7014,
      "encounter": 7015,
      "items": 7016,
      "converter": 7017,
      "fingerprint": 7018,
      "ruby": 7019,
      "unveiling": 7020,
      "cach": 7021,
      "fc": 7022,
      "ice": 7023,
      "lures": 7024,
      "ram": 7025,
      "sid": 7026,
      "vs": 7027,
      "vast": 7028,
      "##link": 7029,
      "##nx": 7030,
      "##zer": 7031,
      "appliance": 7032,
      "executive": 7033,
      "prime": 7034,
      "outbound": 7035,
      "extra": 7036,
      "governmental": 7037,
      "##boy": 7038,
      "france": 7039,
      "variables": 7040,
      "estim": 7041,
      "##apping": 7042,
      "##manager": 7043,
      "normally": 7044,
      "color": 7045,
      "independently": 7046,
      "provenance": 7047,
      "scammers": 7048,
      "zxshell": 7049,
      "average": 7050,
      "4d": 7051,
      "pg": 7052,
      "rs": 7053,
      "##awn": 7054,
      "##fish": 7055,
      "##field": 7056,
      "##kut": 7057,
      "##kov": 7058,
      "##zip": 7059,
      "##acot": 7060,
      "attract": 7061,
      "prol": 7062,
      "intru": 7063,
      "pose": 7064,
      "phones": 7065,
      "##oked": 7066,
      "prc": 7067,
      "##ratankba": 7068,
      "becomes": 7069,
      "##oughly": 7070,
      "objectives": 7071,
      "restore": 7072,
      "edge": 7073,
      "powerratankba": 7074,
      "officer": 7075,
      "archives": 7076,
      "skills": 7077,
      "##lotus": 7078,
      "terracot": 7079,
      "btz": 7080,
      "budapest": 7081,
      "frequency": 7082,
      "scarlet": 7083,
      "unicode": 7084,
      "tailored": 7085,
      "cryptocurrency": 7086,
      "committee": 7087,
      "arsenal": 7088,
      "terracotta": 7089,
      "sfx": 7090,
      "ws": 7091,
      "zones": 7092,
      "##mar": 7093,
      "##come": 7094,
      "##edia": 7095,
      "exec": 7096,
      "asy": 7097,
      "##ssl": 7098,
      "price": 7099,
      "tweet": 7100,
      "127": 7101,
      "worker": 7102,
      "investigate": 7103,
      "performance": 7104,
      "involves": 7105,
      "insecure": 7106,
      "507": 7107,
      "putin": 7108,
      "economics": 7109,
      "aimed": 7110,
      "introduced": 7111,
      "extracts": 7112,
      "considering": 7113,
      "oceanlotus": 7114,
      "98": 7115,
      "96": 7116,
      "bur": 7117,
      "gaz": 7118,
      "##lers": 7119,
      "##unting": 7120,
      "resemb": 7121,
      "intention": 7122,
      "leaving": 7123,
      "cylance": 7124,
      "recv": 7125,
      "##networks": 7126,
      "255": 7127,
      "demonstrates": 7128,
      "enabling": 7129,
      "claiming": 7130,
      "topics": 7131,
      "produced": 7132,
      "formerly": 7133,
      "telecom": 7134,
      "robot": 7135,
      "circumstances": 7136,
      "##initial": 7137,
      "youtube": 7138,
      "400": 7139,
      "82": 7140,
      "aa": 7141,
      "casc": 7142,
      "fav": 7143,
      "ment": 7144,
      "nick": 7145,
      "pix": 7146,
      "rss": 7147,
      "##ui": 7148,
      "##atz": 7149,
      "##rop": 7150,
      "shif": 7151,
      "##ssom": 7152,
      "prep": 7153,
      "offices": 7154,
      "##icked": 7155,
      "minimum": 7156,
      "figures": 7157,
      "brand": 7158,
      "lower": 7159,
      "concerns": 7160,
      "opportunity": 7161,
      "historical": 7162,
      "vbscript": 7163,
      "queue": 7164,
      "satellite": 7165,
      "democratic": 7166,
      "chapter": 7167,
      "4e": 7168,
      "doll": 7169,
      "eco": 7170,
      "hyp": 7171,
      "jr": 7172,
      "kits": 7173,
      "mss": 7174,
      "oop": 7175,
      "##lined": 7176,
      "##b0": 7177,
      "##kb": 7178,
      "##wind": 7179,
      "##aly": 7180,
      "spring": 7181,
      "acts": 7182,
      "struts": 7183,
      "##string": 7184,
      "sniff": 7185,
      "utilize": 7186,
      "darkc": 7187,
      "leaks": 7188,
      "turkey": 7189,
      "evolve": 7190,
      "penetr": 7191,
      "transmitted": 7192,
      "foothold": 7193,
      "blossom": 7194,
      "orchestrator": 7195,
      "philipp": 7196,
      "bahrain": 7197,
      "degree": 7198,
      "c0": 7199,
      "nsa": 7200,
      "ok": 7201,
      "ping": 7202,
      "sem": 7203,
      "um": 7204,
      "##a7": 7205,
      "##access": 7206,
      "##eth": 7207,
      "adopt": 7208,
      "##allery": 7209,
      "doct": 7210,
      "hour": 7211,
      "injects": 7212,
      "hackt": 7213,
      "county": 7214,
      "viewing": 7215,
      "localservice": 7216,
      "bring": 7217,
      "resolve": 7218,
      "policies": 7219,
      "##ammer": 7220,
      "street": 7221,
      "examined": 7222,
      "ign": 7223,
      "mofang": 7224,
      "onionduke": 7225,
      "0e": 7226,
      "1h": 7227,
      "2d": 7228,
      "85": 7229,
      "ba": 7230,
      "bid": 7231,
      "fight": 7232,
      "mer": 7233,
      "mbr": 7234,
      "ua": 7235,
      "##lr": 7236,
      "##f1": 7237,
      "##vr": 7238,
      "##enue": 7239,
      "##ref": 7240,
      "##using": 7241,
      "alter": 7242,
      "##ians": 7243,
      "liber": 7244,
      "explan": 7245,
      "currentversion": 7246,
      "implementations": 7247,
      "warned": 7248,
      "##config": 7249,
      "pointing": 7250,
      "label": 7251,
      "revious": 7252,
      "monitored": 7253,
      "##ikatz": 7254,
      "launching": 7255,
      "##prot": 7256,
      "specifies": 7257,
      "##ools": 7258,
      "prepared": 7259,
      "darkcomet": 7260,
      "ber": 7261,
      "cash": 7262,
      "ee": 7263,
      "iis": 7264,
      "pir": 7265,
      "rb": 7266,
      "##eal": 7267,
      "##has": 7268,
      "##orter": 7269,
      "touch": 7270,
      "stub": 7271,
      "explos": 7272,
      "webdav": 7273,
      "washing": 7274,
      "parli": 7275,
      "docx": 7276,
      "gaining": 7277,
      "verification": 7278,
      "connectivity": 7279,
      "visited": 7280,
      "realnetworks": 7281,
      "geo": 7282,
      "discussion": 7283,
      "dragos": 7284,
      "pipes": 7285,
      "weakness": 7286,
      "hkcu": 7287,
      "treat": 7288,
      "pwc": 7289,
      "sabot": 7290,
      "unwanted": 7291,
      "perspective": 7292,
      "hacktiv": 7293,
      "2b": 7294,
      "divers": 7295,
      "ole": 7296,
      "rates": 7297,
      "xagent": 7298,
      "##tom": 7299,
      "##main": 7300,
      "##den": 7301,
      "##del": 7302,
      "##worth": 7303,
      "##ingu": 7304,
      "covert": 7305,
      "##ason": 7306,
      "tru": 7307,
      "travel": 7308,
      "##quer": 7309,
      "parent": 7310,
      "usernames": 7311,
      "operated": 7312,
      "reply": 7313,
      "assign": 7314,
      "publish": 7315,
      "powerful": 7316,
      "responsibility": 7317,
      "scanner": 7318,
      "equiv": 7319,
      "suggested": 7320,
      "calendar": 7321,
      "identifies": 7322,
      "camera": 7323,
      "categories": 7324,
      "psy": 7325,
      "stopped": 7326,
      "pseud": 7327,
      "digitally": 7328,
      "meeting": 7329,
      "affiliated": 7330,
      "moment": 7331,
      "bitterbug": 7332,
      "060": 7333,
      "dual": 7334,
      "huge": 7335,
      "##c4": 7336,
      "##lies": 7337,
      "##xy": 7338,
      "forced": 7339,
      "chunk": 7340,
      "sum": 7341,
      "##opol": 7342,
      "extent": 7343,
      "0xff": 7344,
      "imag": 7345,
      "focusing": 7346,
      "##toss": 7347,
      "suspic": 7348,
      "summar": 7349,
      "transferred": 7350,
      "mimikatz": 7351,
      "surprising": 7352,
      "evalu": 7353,
      "jboss": 7354,
      "3b": 7355,
      "batt": 7356,
      "kb": 7357,
      "kre": 7358,
      "kaz": 7359,
      "xen": 7360,
      "##hand": 7361,
      "##inary": 7362,
      "##alk": 7363,
      "##icane": 7364,
      "##urp": 7365,
      "unless": 7366,
      "##chang": 7367,
      "##uded": 7368,
      "cycle": 7369,
      "manual": 7370,
      "regions": 7371,
      "locked": 7372,
      "demands": 7373,
      "smar": 7374,
      "mapping": 7375,
      "blocking": 7376,
      "brit": 7377,
      "linkedin": 7378,
      "belongs": 7379,
      "submit": 7380,
      "ebp": 7381,
      "idea": 7382,
      "negot": 7383,
      "navig": 7384,
      "ipv6": 7385,
      "guidance": 7386,
      "succeed": 7387,
      "acknowled": 7388,
      "hurricane": 7389,
      "50727": 7390,
      "parliament": 7391,
      "bes": 7392,
      "pu": 7393,
      "##sing": 7394,
      "##mit": 7395,
      "##ftp": 7396,
      "htran": 7397,
      "patients": 7398,
      "extort": 7399,
      "flame": 7400,
      "internally": 7401,
      "utilizing": 7402,
      "behavio": 7403,
      "spoofing": 7404,
      "happened": 7405,
      "hyper": 7406,
      "sha1": 7407,
      "uint32": 7408,
      "respective": 7409,
      "inspection": 7410,
      "0a": 7411,
      "cult": 7412,
      "fax": 7413,
      "pac": 7414,
      "##mer": 7415,
      "##c5": 7416,
      "##uan": 7417,
      "##fire": 7418,
      "##ina": 7419,
      "ang": 7420,
      "##omb": 7421,
      "notify": 7422,
      "notably": 7423,
      "scans": 7424,
      "agents": 7425,
      "backend": 7426,
      "models": 7427,
      "responded": 7428,
      "severity": 7429,
      "presidential": 7430,
      "wincc": 7431,
      "profit": 7432,
      "autor": 7433,
      "guar": 7434,
      "##scape": 7435,
      "globe": 7436,
      "latter": 7437,
      "construction": 7438,
      "articles": 7439,
      "recommends": 7440,
      "maximum": 7441,
      "plaintext": 7442,
      "proceeds": 7443,
      "closed": 7444,
      "answer": 7445,
      "interpret": 7446,
      "eth": 7447,
      "mich": 7448,
      "mix": 7449,
      "rise": 7450,
      "##ael": 7451,
      "##dn": 7452,
      "##iate": 7453,
      "##icks": 7454,
      "interv": 7455,
      "dos": 7456,
      "0x0": 7457,
      "supplied": 7458,
      "dropping": 7459,
      "msi": 7460,
      "##encing": 7461,
      "##atched": 7462,
      "##scan": 7463,
      "automation": 7464,
      "retrieves": 7465,
      "seemingly": 7466,
      "spreadsh": 7467,
      "firewalls": 7468,
      "##espread": 7469,
      "widespread": 7470,
      "ldap": 7471,
      "menu": 7472,
      "expertise": 7473,
      "repository": 7474,
      "71": 7475,
      "8a": 7476,
      "band": 7477,
      "fat": 7478,
      "hon": 7479,
      "kh": 7480,
      "ov": 7481,
      "##rent": 7482,
      "##hi": 7483,
      "##wood": 7484,
      "##ioned": 7485,
      "ord": 7486,
      "spr": 7487,
      "##aveler": 7488,
      "informed": 7489,
      "saves": 7490,
      "defenses": 7491,
      "opin": 7492,
      "apt29": 7493,
      "##door": 7494,
      "##ridge": 7495,
      "summer": 7496,
      "diag": 7497,
      "reached": 7498,
      "unsigned": 7499,
      "islam": 7500,
      "ecosystem": 7501,
      "washington": 7502,
      "3d": 7503,
      "rail": 7504,
      "##mgr": 7505,
      "##9a": 7506,
      "possess": 7507,
      "communicated": 7508,
      "herein": 7509,
      "clicked": 7510,
      "telnet": 7511,
      "complexity": 7512,
      "penet": 7513,
      "wiping": 7514,
      "contractors": 7515,
      "cmstar": 7516,
      "consumers": 7517,
      "sabotage": 7518,
      "##worthy": 7519,
      "210": 7520,
      "fear": 7521,
      "hammer": 7522,
      "je": 7523,
      "ts": 7524,
      "trid": 7525,
      "##e4": 7526,
      "##cre": 7527,
      "##bl": 7528,
      "##fli": 7529,
      "##vis": 7530,
      "##ya": 7531,
      "##gh": 7532,
      "##inum": 7533,
      "##arm": 7534,
      "##stream": 7535,
      "promin": 7536,
      "uninitial": 7537,
      "ship": 7538,
      "reput": 7539,
      "##ounds": 7540,
      "processor": 7541,
      "126": 7542,
      "handlers": 7543,
      "becoming": 7544,
      "blu": 7545,
      "revent": 7546,
      "braz": 7547,
      "removing": 7548,
      "json": 7549,
      "examine": 7550,
      "photo": 7551,
      "volex": 7552,
      "templates": 7553,
      "america": 7554,
      "landscape": 7555,
      "challenges": 7556,
      "undet": 7557,
      "ipv4": 7558,
      "penetration": 7559,
      "uninitialized": 7560,
      "aid": 7561,
      "bbc": 7562,
      "f8": 7563,
      "khan": 7564,
      "##b1": 7565,
      "##pm": 7566,
      "##uty": 7567,
      "alliance": 7568,
      "compr": 7569,
      "trace": 7570,
      "recurs": 7571,
      "imposs": 7572,
      "##akh": 7573,
      "stront": 7574,
      "threatconnect": 7575,
      "clip": 7576,
      "issu": 7577,
      "blank": 7578,
      "behalf": 7579,
      "initialized": 7580,
      "emphas": 7581,
      "entered": 7582,
      "platinum": 7583,
      "geopol": 7584,
      "convinc": 7585,
      "turk": 7586,
      "institution": 7587,
      "etum": 7588,
      "assessment": 7589,
      "expression": 7590,
      "regardless": 7591,
      "coverage": 7592,
      "secrets": 7593,
      "coordinated": 7594,
      "alerts": 7595,
      "quality": 7596,
      "atlanta": 7597,
      "1h15": 7598,
      "impossible": 7599,
      "strontium": 7600,
      "215": 7601,
      "bord": 7602,
      "jen": 7603,
      "sky": 7604,
      "v3": 7605,
      "wm": 7606,
      "##ck": 7607,
      "##vision": 7608,
      "tok": 7609,
      "##root": 7610,
      "##etime": 7611,
      "unlock": 7612,
      "webmail": 7613,
      "101": 7614,
      "manso": 7615,
      "2001": 7616,
      "logo": 7617,
      "##logix": 7618,
      "moreover": 7619,
      "feat": 7620,
      "##msg": 7621,
      "pair": 7622,
      "grab": 7623,
      "tracks": 7624,
      "facilities": 7625,
      "priority": 7626,
      "segment": 7627,
      "discourage": 7628,
      "ticket": 7629,
      "hypot": 7630,
      "0d": 7631,
      "1c": 7632,
      "dim": 7633,
      "hence": 7634,
      "hunt": 7635,
      "##noon": 7636,
      "##ih": 7637,
      "##itar": 7638,
      "##ulations": 7639,
      "proc": 7640,
      "unrel": 7641,
      "crisis": 7642,
      "##001": 7643,
      "patient": 7644,
      "defe": 7645,
      "obtaining": 7646,
      "intelligent": 7647,
      "powered": 7648,
      "languages": 7649,
      "##team": 7650,
      "letters": 7651,
      "svg": 7652,
      "saying": 7653,
      "concerning": 7654,
      "demanded": 7655,
      "learned": 7656,
      "manipulate": 7657,
      "insert": 7658,
      "illeg": 7659,
      "##command": 7660,
      "upported": 7661,
      "volexity": 7662,
      "87": 7663,
      "gp": 7664,
      "nn": 7665,
      "wel": 7666,
      "##a0": 7667,
      "##c6": 7668,
      "##b4": 7669,
      "##fr": 7670,
      "##9e": 7671,
      "##pack": 7672,
      "##ared": 7673,
      "##ley": 7674,
      "##ades": 7675,
      "noting": 7676,
      "##theless": 7677,
      "butter": 7678,
      "posting": 7679,
      "163": 7680,
      "msn": 7681,
      "carac": 7682,
      "focuses": 7683,
      "shortly": 7684,
      "matching": 7685,
      "harm": 7686,
      "nevertheless": 7687,
      "planning": 7688,
      "conclusion": 7689,
      "examining": 7690,
      "flags": 7691,
      "stealthy": 7692,
      "dissector": 7693,
      "weaponized": 7694,
      "##what": 7695,
      "observations": 7696,
      "homel": 7697,
      "autorun": 7698,
      "3rd": 7699,
      "6d": 7700,
      "bang": 7701,
      "cut": 7702,
      "cia": 7703,
      "dell": 7704,
      "ko": 7705,
      "##ev": 7706,
      "##lc": 7707,
      "##lights": 7708,
      "##d2": 7709,
      "##ipt": 7710,
      "##gan": 7711,
      "oned": 7712,
      "filters": 7713,
      "##dex": 7714,
      "malays": 7715,
      "chop": 7716,
      "sufficient": 7717,
      "pool": 7718,
      "sak": 7719,
      "relied": 7720,
      "feel": 7721,
      "bottom": 7722,
      "signal": 7723,
      "seeking": 7724,
      "investment": 7725,
      "minim": 7726,
      "cleaver": 7727,
      "originating": 7728,
      "648": 7729,
      "equal": 7730,
      "interactive": 7731,
      "masquer": 7732,
      "overlaps": 7733,
      "evolved": 7734,
      "keeping": 7735,
      "choose": 7736,
      "correspond": 7737,
      "##new": 7738,
      "covered": 7739,
      "necessarily": 7740,
      "mitigate": 7741,
      "##hood": 7742,
      "achieved": 7743,
      "negative": 7744,
      "unrest": 7745,
      "innov": 7746,
      "austral": 7747,
      "convincing": 7748,
      "butterfly": 7749,
      "a2": 7750,
      "aw": 7751,
      "bb": 7752,
      "bait": 7753,
      "fault": 7754,
      "rv": 7755,
      "roughly": 7756,
      "tests": 7757,
      "tree": 7758,
      "##lim": 7759,
      "##f8": 7760,
      "##pal": 7761,
      "##ecting": 7762,
      "##berkut": 7763,
      "dating": 7764,
      "##licated": 7765,
      "##ultane": 7766,
      "cyberberkut": 7767,
      "strength": 7768,
      "direction": 7769,
      "somewhat": 7770,
      "keyword": 7771,
      "##login": 7772,
      "prem": 7773,
      "120": 7774,
      "quant": 7775,
      "advice": 7776,
      "simultane": 7777,
      "trojanized": 7778,
      "privileged": 7779,
      "purported": 7780,
      "importance": 7781,
      "launches": 7782,
      "delivering": 7783,
      "protecting": 7784,
      "mitm": 7785,
      "speed": 7786,
      "palest": 7787,
      "chopper": 7788,
      "happen": 7789,
      "arabia": 7790,
      "dozens": 7791,
      "trident": 7792,
      "homeland": 7793,
      "mil": 7794,
      "mother": 7795,
      "##cil": 7796,
      "##cmd": 7797,
      "##layer": 7798,
      "##f2": 7799,
      "##fol": 7800,
      "##fog": 7801,
      "##ike": 7802,
      "##information": 7803,
      "##ename": 7804,
      "##ained": 7805,
      "death": 7806,
      "serving": 7807,
      "netfli": 7808,
      "phases": 7809,
      "recru": 7810,
      "responding": 7811,
      "wrong": 7812,
      "highlights": 7813,
      "pathname": 7814,
      "employs": 7815,
      "headqu": 7816,
      "laterally": 7817,
      "broader": 7818,
      "situations": 7819,
      "tinyp": 7820,
      "upgrade": 7821,
      "##expected": 7822,
      "experienced": 7823,
      "kazakh": 7824,
      "netflix": 7825,
      "360": 7826,
      "cens": 7827,
      "gem": 7828,
      "rose": 7829,
      "rcs": 7830,
      "vice": 7831,
      "##a6": 7832,
      "##frame": 7833,
      "##gest": 7834,
      "##worm": 7835,
      "##atives": 7836,
      "##sters": 7837,
      "##ulating": 7838,
      "##aml": 7839,
      "##ounder": 7840,
      "instru": 7841,
      "themed": 7842,
      "##ogue": 7843,
      "##rative": 7844,
      "england": 7845,
      "looked": 7846,
      "##safe": 7847,
      "potao": 7848,
      "##points": 7849,
      "guess": 7850,
      "copying": 7851,
      "students": 7852,
      "maintaining": 7853,
      "cpyy": 7854,
      "spying": 7855,
      "mask": 7856,
      "##esperson": 7857,
      "switches": 7858,
      "maxim": 7859,
      "manufacturing": 7860,
      "predict": 7861,
      "glass": 7862,
      "transaction": 7863,
      "spokesperson": 7864,
      "explosive": 7865,
      "84": 7866,
      "founder": 7867,
      "pad": 7868,
      "rational": 7869,
      "##f7": 7870,
      "##f4": 7871,
      "thin": 7872,
      "theory": 7873,
      "##oring": 7874,
      "anom": 7875,
      "unexpected": 7876,
      "chart": 7877,
      "nex": 7878,
      "##ibly": 7879,
      "##ished": 7880,
      "outlined": 7881,
      "processed": 7882,
      "##location": 7883,
      "verified": 7884,
      "revision": 7885,
      "formats": 7886,
      "surround": 7887,
      "utilizes": 7888,
      "hijacked": 7889,
      "allocation": 7890,
      "unpatched": 7891,
      "transmit": 7892,
      "benefit": 7893,
      "agreement": 7894,
      "suffered": 7895,
      "hypothes": 7896,
      "unrelated": 7897,
      "ah": 7898,
      "c1": 7899,
      "c4": 7900,
      "fit": 7901,
      "lua": 7902,
      "mt": 7903,
      "oly": 7904,
      "tables": 7905,
      "v2": 7906,
      "##e2": 7907,
      "##car": 7908,
      "##uk": 7909,
      "##direct": 7910,
      "##zh": 7911,
      "##onom": 7912,
      "##acc": 7913,
      "##ellow": 7914,
      "expose": 7915,
      "##udes": 7916,
      "##odb": 7917,
      "125": 7918,
      "0xc": 7919,
      "consumer": 7920,
      "beta": 7921,
      "seek": 7922,
      "mapped": 7923,
      "decrypting": 7924,
      "integrated": 7925,
      "geographic": 7926,
      "effects": 7927,
      "algorithms": 7928,
      "missile": 7929,
      "##ipped": 7930,
      "precise": 7931,
      "acquired": 7932,
      "arabic": 7933,
      "illustrates": 7934,
      "bm": 7935,
      "bp": 7936,
      "cast": 7937,
      "sie": 7938,
      "vp": 7939,
      "wmi": 7940,
      "©all": 7941,
      "##aq": 7942,
      "##can": 7943,
      "##b8": 7944,
      "##f6": 7945,
      "##dns": 7946,
      "##ga": 7947,
      "court": 7948,
      "bell": 7949,
      "conce": 7950,
      "unpr": 7951,
      "units": 7952,
      "caught": 7953,
      "score": 7954,
      "partner": 7955,
      "indict": 7956,
      "irs": 7957,
      "marker": 7958,
      "dynamically": 7959,
      "optional": 7960,
      "debugging": 7961,
      "bitcoins": 7962,
      "happens": 7963,
      "acquis": 7964,
      "allocated": 7965,
      "inserted": 7966,
      "lynx": 7967,
      "essentially": 7968,
      "couple": 7969,
      "geopolitical": 7970,
      "etumbot": 7971,
      "mansoor": 7972,
      "kazakhstan": 7973,
      "olymp": 7974,
      "b8": 7975,
      "bd": 7976,
      "dal": 7977,
      "ls": 7978,
      "lur": 7979,
      "##type": 7980,
      "##np": 7981,
      "##eck": 7982,
      "tops": 7983,
      "conﬁ": 7984,
      "ase": 7985,
      "progress": 7986,
      "##agon": 7987,
      "crit": 7988,
      "poly": 7989,
      "##ender": 7990,
      "nets": 7991,
      "##rupt": 7992,
      "keyboy": 7993,
      "logical": 7994,
      "computing": 7995,
      "registers": 7996,
      "minimal": 7997,
      "statements": 7998,
      "proximate": 7999,
      "obfuscate": 8000,
      "destruction": 8001,
      "##256": 8002,
      "studies": 8003,
      "maintained": 8004,
      "defender": 8005,
      "##etric": 8006,
      "estonian": 8007,
      "flexible": 8008,
      "pretty": 8009,
      "absol": 8010,
      "perpet": 8011,
      "interfaces": 8012,
      "undetected": 8013,
      "2nd": 8014,
      "gallery": 8015,
      "len": 8016,
      "pk": 8017,
      "pas": 8018,
      "##racy": 8019,
      "##b6": 8020,
      "##wiki": 8021,
      "fort": 8022,
      "##dev": 8023,
      "##berry": 8024,
      "scot": 8025,
      "wasn": 8026,
      "obsc": 8027,
      "##iction": 8028,
      "arri": 8029,
      "age": 8030,
      "perl": 8031,
      "activated": 8032,
      "passes": 8033,
      "engage": 8034,
      "redict": 8035,
      "minister": 8036,
      "transition": 8037,
      "releases": 8038,
      "##class": 8039,
      "engineer": 8040,
      "demonstrate": 8041,
      "myan": 8042,
      "redirection": 8043,
      "constit": 8044,
      "facts": 8045,
      "##viewer": 8046,
      "belg": 8047,
      "sunshop": 8048,
      "advertising": 8049,
      "doubt": 8050,
      "filtering": 8051,
      "bootkit": 8052,
      "shutdown": 8053,
      "hklm": 8054,
      "chrw": 8055,
      "##a4d": 8056,
      "isolated": 8057,
      "license": 8058,
      "p2p": 8059,
      "##metry": 8060,
      "philippines": 8061,
      "equivalent": 8062,
      "clipboard": 8063,
      "3a": 8064,
      "dt": 8065,
      "lond": 8066,
      "matt": 8067,
      "##rl": 8068,
      "##cast": 8069,
      "##dat": 8070,
      "##imp": 8071,
      "##icon": 8072,
      "##stat": 8073,
      "##izon": 8074,
      "htm": 8075,
      "cyberkov": 8076,
      "desired": 8077,
      "workar": 8078,
      "analysed": 8079,
      "0x4": 8080,
      "hands": 8081,
      "council": 8082,
      "lapt": 8083,
      "freed": 8084,
      "closer": 8085,
      "investigators": 8086,
      "deleting": 8087,
      "grant": 8088,
      "scanned": 8089,
      "norms": 8090,
      "shortened": 8091,
      "putter": 8092,
      "captures": 8093,
      "sv1": 8094,
      "emerged": 8095,
      "continuing": 8096,
      "##craft": 8097,
      "malvertising": 8098,
      "analytics": 8099,
      "dollars": 8100,
      "battle": 8101,
      "motherboard": 8102,
      "absolute": 8103,
      "london": 8104,
      "2q": 8105,
      "d2": 8106,
      "dhs": 8107,
      "f7": 8108,
      "ncl": 8109,
      "pap": 8110,
      "rated": 8111,
      "tiff": 8112,
      "##rst": 8113,
      "##f9": 8114,
      "##amer": 8115,
      "sp4": 8116,
      "chance": 8117,
      "mount": 8118,
      "sust": 8119,
      "applet": 8120,
      "afg": 8121,
      "##aks": 8122,
      "##ansalt": 8123,
      "##rought": 8124,
      "perman": 8125,
      "identities": 8126,
      "apts": 8127,
      "protests": 8128,
      "signs": 8129,
      "programm": 8130,
      "##127": 8131,
      "begun": 8132,
      "##proc": 8133,
      "combat": 8134,
      "exchang": 8135,
      "waterbug": 8136,
      "ministries": 8137,
      "enforce": 8138,
      "voice": 8139,
      "psexec": 8140,
      "oceansalt": 8141,
      "gauss": 8142,
      "ngos": 8143,
      "assumed": 8144,
      "sniffing": 8145,
      "behaviour": 8146,
      "myanmar": 8147,
      "132": 8148,
      "92": 8149,
      "afor": 8150,
      "bi": 8151,
      "bir": 8152,
      "f2": 8153,
      "hunting": 8154,
      "nine": 8155,
      "qq": 8156,
      "##e5": 8157,
      "##rs": 8158,
      "##lp": 8159,
      "##fers": 8160,
      "##roj": 8161,
      "##ask": 8162,
      "##igence": 8163,
      "adj": 8164,
      "##mented": 8165,
      "spaces": 8166,
      "##berg": 8167,
      "##ension": 8168,
      "installers": 8169,
      "listening": 8170,
      "administer": 8171,
      "meta": 8172,
      "stegan": 8173,
      "##files": 8174,
      "occasion": 8175,
      "positive": 8176,
      "preventing": 8177,
      "harder": 8178,
      "colle": 8179,
      "parses": 8180,
      "mitigation": 8181,
      "compatibility": 8182,
      "##locker": 8183,
      "measure": 8184,
      "kept": 8185,
      "heavy": 8186,
      "dispatch": 8187,
      "purchase": 8188,
      "consequences": 8189,
      "icefog": 8190,
      "guarant": 8191,
      "topsec": 8192,
      "bae": 8193,
      "mere": 8194,
      "pv": 8195,
      "##bt": 8196,
      "##f0": 8197,
      "##d4": 8198,
      "##iang": 8199,
      "##kel": 8200,
      "##etic": 8201,
      "##stick": 8202,
      "usual": 8203,
      "##uri": 8204,
      "##iment": 8205,
      "crm": 8206,
      "##quest": 8207,
      "sought": 8208,
      "##izer": 8209,
      "neut": 8210,
      "114": 8211,
      "outlets": 8212,
      "##arters": 8213,
      "broken": 8214,
      "revolution": 8215,
      "disclosures": 8216,
      "topic": 8217,
      "concent": 8218,
      "fraudsters": 8219,
      "##png": 8220,
      "telemetry": 8221,
      "explains": 8222,
      "killdisk": 8223,
      "survey": 8224,
      "organisation": 8225,
      "removal": 8226,
      "silver": 8227,
      "challenge": 8228,
      "ranging": 8229,
      "pushed": 8230,
      "sinkhole": 8231,
      "completed": 8232,
      "dhcp": 8233,
      "spreadsheet": 8234,
      "siebel": 8235,
      "bc": 8236,
      "brought": 8237,
      "c3": 8238,
      "c6": 8239,
      "cand": 8240,
      "gam": 8241,
      "iot": 8242,
      "nso": 8243,
      "pam": 8244,
      "ui": 8245,
      "uac": 8246,
      "vine": 8247,
      "vital": 8248,
      "##oy": 8249,
      "##oint": 8250,
      "##lands": 8251,
      "##d8": 8252,
      "##onn": 8253,
      "##urance": 8254,
      "station": 8255,
      "aslr": 8256,
      "spect": 8257,
      "symp": 8258,
      "explicit": 8259,
      "##orship": 8260,
      "stra": 8261,
      "backed": 8262,
      "speciﬁc": 8263,
      "delay": 8264,
      "toolsets": 8265,
      "loaders": 8266,
      "##ementioned": 8267,
      "##encrypt": 8268,
      "elise": 8269,
      "medium": 8270,
      "presentation": 8271,
      "departments": 8272,
      "produce": 8273,
      "beacons": 8274,
      "conclude": 8275,
      "concern": 8276,
      "determining": 8277,
      "forwarded": 8278,
      "layers": 8279,
      "embassies": 8280,
      "rapidly": 8281,
      "sinkhol": 8282,
      "mistakes": 8283,
      "remediation": 8284,
      "##address": 8285,
      "quotes": 8286,
      "assembly": 8287,
      "asymm": 8288,
      "aforementioned": 8289,
      "steganography": 8290,
      "0b": 8291,
      "032": 8292,
      "ds": 8293,
      "jack": 8294,
      "ks": 8295,
      "nort": 8296,
      "vba": 8297,
      "wider": 8298,
      "##mx": 8299,
      "##ei": 8300,
      "##d1": 8301,
      "##esk": 8302,
      "##ores": 8303,
      "##alloc": 8304,
      "##asy": 8305,
      "##asus": 8306,
      "##mpeg": 8307,
      "reuse": 8308,
      "mouse": 8309,
      "##uploader": 8310,
      "sav": 8311,
      "funds": 8312,
      "decre": 8313,
      "indirect": 8314,
      "readable": 8315,
      "subsc": 8316,
      "packer": 8317,
      "wrapper": 8318,
      "amaz": 8319,
      "capital": 8320,
      "msvc": 8321,
      "distingu": 8322,
      "reality": 8323,
      "helped": 8324,
      "aspect": 8325,
      "forcepoint": 8326,
      "selection": 8327,
      "wanted": 8328,
      "mitigates": 8329,
      "offering": 8330,
      "terminate": 8331,
      "wipe": 8332,
      "correctly": 8333,
      "skilled": 8334,
      "carrying": 8335,
      "contractor": 8336,
      "##while": 8337,
      "improperly": 8338,
      "democracy": 8339,
      "##ladesh": 8340,
      "prominent": 8341,
      "brazil": 8342,
      "bangladesh": 8343,
      "nexus": 8344,
      "asean": 8345,
      "afghan": 8346,
      "mz": 8347,
      "pure": 8348,
      "rig": 8349,
      "round": 8350,
      "tan": 8351,
      "##fi": 8352,
      "##d6": 8353,
      "##iable": 8354,
      "##xml": 8355,
      "##aser": 8356,
      "##adec": 8357,
      "commerce": 8358,
      "##soon": 8359,
      "abused": 8360,
      "assert": 8361,
      "linking": 8362,
      "indications": 8363,
      "##icking": 8364,
      "shells": 8365,
      "winlog": 8366,
      "lookout": 8367,
      "whereas": 8368,
      "##place": 8369,
      "engineered": 8370,
      "boy": 8371,
      "##eshell": 8372,
      "ffmpeg": 8373,
      "immediate": 8374,
      "motivation": 8375,
      "friend": 8376,
      "radio": 8377,
      "waits": 8378,
      "flood": 8379,
      "0x5a4d": 8380,
      "impression": 8381,
      "subsection": 8382,
      "estimated": 8383,
      "cascading": 8384,
      "chopstick": 8385,
      "surrounding": 8386,
      "lz": 8387,
      "s7": 8388,
      "ze": 8389,
      "##a1": 8390,
      "##b3": 8391,
      "##b9": 8392,
      "##bear": 8393,
      "##3chang": 8394,
      "##dm": 8395,
      "2019": 8396,
      "##uses": 8397,
      "##agh": 8398,
      "##emical": 8399,
      "moving": 8400,
      "neuron": 8401,
      "leave": 8402,
      "103": 8403,
      "manif": 8404,
      "province": 8405,
      "0x2": 8406,
      "150": 8407,
      "##101": 8408,
      "everyone": 8409,
      "whitepaper": 8410,
      "universal": 8411,
      "##guard": 8412,
      "##ipping": 8413,
      "careful": 8414,
      "translated": 8415,
      "publishing": 8416,
      "sheets": 8417,
      "scrut": 8418,
      "ke3chang": 8419,
      "opportunistic": 8420,
      "stole": 8421,
      "spotted": 8422,
      "minority": 8423,
      "collaboration": 8424,
      "morning": 8425,
      "academic": 8426,
      "prepare": 8427,
      "explanation": 8428,
      "featured": 8429,
      "anomal": 8430,
      "5d": 8431,
      "7c": 8432,
      "fash": 8433,
      "gave": 8434,
      "zen": 8435,
      "##son": 8436,
      "##a8": 8437,
      "##eets": 8438,
      "##nic": 8439,
      "##ha": 8440,
      "##ban": 8441,
      "##ball": 8442,
      "##d7": 8443,
      "##iper": 8444,
      "##aten": 8445,
      "##ete": 8446,
      "##lose": 8447,
      "##ifer": 8448,
      "##chron": 8449,
      "contrast": 8450,
      "##forms": 8451,
      "webex": 8452,
      "interview": 8453,
      "##umes": 8454,
      "partial": 8455,
      "prevents": 8456,
      "openssl": 8457,
      "##object": 8458,
      "generating": 8459,
      "notepad": 8460,
      "visio": 8461,
      "encour": 8462,
      "deliber": 8463,
      "compiler": 8464,
      "##uching": 8465,
      "launcher": 8466,
      "aircraft": 8467,
      "cryptographic": 8468,
      "facility": 8469,
      "yeti": 8470,
      "haven": 8471,
      "economy": 8472,
      "pressure": 8473,
      "sha256": 8474,
      "raise": 8475,
      "preced": 8476,
      "render": 8477,
      "##header": 8478,
      "crouching": 8479,
      "kings": 8480,
      "mig": 8481,
      "pul": 8482,
      "rocket": 8483,
      "witness": 8484,
      "##ren": 8485,
      "##nost": 8486,
      "##hic": 8487,
      "##iors": 8488,
      "##gb": 8489,
      "##xi": 8490,
      "##kys": 8491,
      "##ст": 8492,
      "##erv": 8493,
      "##ervice": 8494,
      "##ury": 8495,
      "##usive": 8496,
      "##seoul": 8497,
      "sho": 8498,
      "caution": 8499,
      "scient": 8500,
      "nether": 8501,
      "##elling": 8502,
      "##umn": 8503,
      "decade": 8504,
      "##oks": 8505,
      "clues": 8506,
      "apt32": 8507,
      "##enticated": 8508,
      "monitors": 8509,
      "##print": 8510,
      "laws": 8511,
      "decoder": 8512,
      "geograph": 8513,
      "snipp": 8514,
      "mechanics": 8515,
      "darkseoul": 8516,
      "arrested": 8517,
      "enumerates": 8518,
      "unauthenticated": 8519,
      "propagation": 8520,
      "propaganda": 8521,
      "exclusive": 8522,
      "pseudo": 8523,
      "scrutin": 8524,
      "3f": 8525,
      "512": 8526,
      "hiding": 8527,
      "rober": 8528,
      "sz": 8529,
      "taid": 8530,
      "##eper": 8531,
      "##body": 8532,
      "##foo": 8533,
      "##enko": 8534,
      "##itation": 8535,
      "##itable": 8536,
      "orient": 8537,
      "moun": 8538,
      "applies": 8539,
      "plant": 8540,
      "##007": 8541,
      "monsoon": 8542,
      "flamer": 8543,
      "acl": 8544,
      "currency": 8545,
      "imm": 8546,
      "fin4": 8547,
      "173": 8548,
      "seeing": 8549,
      "noteworthy": 8550,
      "167": 8551,
      "viewed": 8552,
      "describing": 8553,
      "join": 8554,
      "secureworks": 8555,
      "periodically": 8556,
      "hooking": 8557,
      "seduploader": 8558,
      "recommended": 8559,
      "biggest": 8560,
      "acquire": 8561,
      "manipulation": 8562,
      "##buffer": 8563,
      "radar": 8564,
      "disguise": 8565,
      "obviously": 8566,
      "##control": 8567,
      "tainted": 8568,
      "subdomains": 8569,
      "suspicion": 8570,
      "dalai": 8571,
      "birth": 8572,
      "taidoor": 8573,
      "411": 8574,
      "aster": 8575,
      "fly": 8576,
      "gs": 8577,
      "lama": 8578,
      "ndis": 8579,
      "pull": 8580,
      "sans": 8581,
      "wish": 8582,
      "zox": 8583,
      "##rated": 8584,
      "##uid": 8585,
      "##gl": 8586,
      "##edented": 8587,
      "##ecedented": 8588,
      "##ili": 8589,
      "##acements": 8590,
      "##igu": 8591,
      "atm": 8592,
      "enem": 8593,
      "moose": 8594,
      "fund": 8595,
      "relating": 8596,
      "technically": 8597,
      "corp": 8598,
      "sqlite": 8599,
      "176": 8600,
      "131": 8601,
      "variations": 8602,
      "2545": 8603,
      "district": 8604,
      "elder": 8605,
      "solid": 8606,
      "encode": 8607,
      "personas": 8608,
      "route": 8609,
      "officers": 8610,
      "opposed": 8611,
      "behaviors": 8612,
      "ddns": 8613,
      "ether": 8614,
      "corporations": 8615,
      "meanwhile": 8616,
      "concerned": 8617,
      "reaching": 8618,
      "holds": 8619,
      "sanctions": 8620,
      "clearskys": 8621,
      "relying": 8622,
      "zhc": 8623,
      "manufacturers": 8624,
      "opinion": 8625,
      "turkish": 8626,
      "unprecedented": 8627,
      "conﬁg": 8628,
      "asterisk": 8629,
      "clearskysec": 8630,
      "064": 8631,
      "e0": 8632,
      "fru": 8633,
      "git": 8634,
      "ii": 8635,
      "vt": 8636,
      "v1": 8637,
      "wget": 8638,
      "ﬁles": 8639,
      "ﬁrst": 8640,
      "##a3": 8641,
      "##e0": 8642,
      "##run": 8643,
      "##lin": 8644,
      "##ble": 8645,
      "##v2": 8646,
      "##yz": 8647,
      "##onet": 8648,
      "anth": 8649,
      "##rows": 8650,
      "##eto": 8651,
      "unint": 8652,
      "trisis": 8653,
      "##inder": 8654,
      "nettr": 8655,
      "0000": 8656,
      "ups": 8657,
      "exploitable": 8658,
      "relation": 8659,
      "##osh": 8660,
      "prefix": 8661,
      "assad": 8662,
      "##pres": 8663,
      "img": 8664,
      "registr": 8665,
      "amb": 8666,
      "##filter": 8667,
      "##506": 8668,
      "room": 8669,
      "5500": 8670,
      "identifiers": 8671,
      "titled": 8672,
      "emerging": 8673,
      "benign": 8674,
      "prompted": 8675,
      "dragonfly": 8676,
      "plaus": 8677,
      "competition": 8678,
      "wonder": 8679,
      "accurate": 8680,
      "hwp": 8681,
      "david": 8682,
      "caracal": 8683,
      "414": 8684,
      "94": 8685,
      "bod": 8686,
      "bbs": 8687,
      "hell": 8688,
      "roman": 8689,
      "sund": 8690,
      "tm": 8691,
      "ta": 8692,
      "xs": 8693,
      "##coming": 8694,
      "##ule": 8695,
      "##nia": 8696,
      "##dt": 8697,
      "##asar": 8698,
      "##rew": 8699,
      "##stack": 8700,
      "##uters": 8701,
      "comfoo": 8702,
      "applic": 8703,
      "##allin": 8704,
      "##dump": 8705,
      "1024": 8706,
      "##codec": 8707,
      "##assemb": 8708,
      "110": 8709,
      "whenever": 8710,
      "define": 8711,
      "responds": 8712,
      "pps": 8713,
      "engines": 8714,
      "vert": 8715,
      "sourface": 8716,
      "##letools": 8717,
      "##ological": 8718,
      "libav": 8719,
      "encourage": 8720,
      "rev1": 8721,
      "deploying": 8722,
      "population": 8723,
      "revealing": 8724,
      "ecx": 8725,
      "corresponds": 8726,
      "motivations": 8727,
      "reasonable": 8728,
      "gotroj": 8729,
      "losses": 8730,
      "##http": 8731,
      "substit": 8732,
      "spanish": 8733,
      "illustrated": 8734,
      "waiting": 8735,
      "lucky": 8736,
      "aggressive": 8737,
      "besides": 8738,
      "hammertoss": 8739,
      "acquisition": 8740,
      "straight": 8741,
      "netherlands": 8742,
      "alex": 8743,
      "ahead": 8744,
      "fif": 8745,
      "gar": 8746,
      "gri": 8747,
      "ham": 8748,
      "##e3": 8749,
      "##bf": 8750,
      "##brid": 8751,
      "##ер": 8752,
      "inbox": 8753,
      "##enix": 8754,
      "toward": 8755,
      "##ulates": 8756,
      "be2": 8757,
      "##urg": 8758,
      "##amous": 8759,
      "##aded": 8760,
      "##omin": 8761,
      "##iving": 8762,
      "criter": 8763,
      "104": 8764,
      "invoke": 8765,
      "locky": 8766,
      "likel": 8767,
      "defensive": 8768,
      "apt12": 8769,
      "hacks": 8770,
      "troub": 8771,
      "deputy": 8772,
      "similarity": 8773,
      "hello": 8774,
      "protector": 8775,
      "redirects": 8776,
      "alongside": 8777,
      "representative": 8778,
      "journalist": 8779,
      "kinds": 8780,
      "christ": 8781,
      "hospit": 8782,
      "constantly": 8783,
      "hexadec": 8784,
      "accuracy": 8785,
      "parallel": 8786,
      "cached": 8787,
      "michael": 8788,
      "tokens": 8789,
      "conceal": 8790,
      "workarounds": 8791,
      "kingslayer": 8792,
      "hexadecimal": 8793,
      "4b": 8794,
      "b2": 8795,
      "catch": 8796,
      "dnc": 8797,
      "ets": 8798,
      "f1": 8799,
      "sig": 8800,
      "zlib": 8801,
      "##mode": 8802,
      "##cache": 8803,
      "##b2": 8804,
      "##fusion": 8805,
      "##ihood": 8806,
      "##ен": 8807,
      "coding": 8808,
      "reuters": 8809,
      "##rif": 8810,
      "stem": 8811,
      "cha": 8812,
      "cruc": 8813,
      "windir": 8814,
      "placing": 8815,
      "perm": 8816,
      "anywhere": 8817,
      "infects": 8818,
      "frames": 8819,
      "portable": 8820,
      "deletion": 8821,
      "endpoints": 8822,
      "classic": 8823,
      "routing": 8824,
      "##ricted": 8825,
      "builds": 8826,
      "viruses": 8827,
      "fourth": 8828,
      "decodes": 8829,
      "separated": 8830,
      "cali": 8831,
      "behavioral": 8832,
      "hybrid": 8833,
      "friends": 8834,
      "dissectors": 8835,
      "pakistani": 8836,
      "historically": 8837,
      "hxxps": 8838,
      "transportation": 8839,
      "spokes": 8840,
      "gnu": 8841,
      "parallels": 8842,
      "exercise": 8843,
      "nbsp": 8844,
      "malaysia": 8845,
      "unrestricted": 8846,
      "robert": 8847,
      "anthem": 8848,
      "likelihood": 8849,
      "cul": 8850,
      "hill": 8851,
      "jud": 8852,
      "ned": 8853,
      "ngo": 8854,
      "waves": 8855,
      "yan": 8856,
      "©20": 8857,
      "##ew": 8858,
      "##rill": 8859,
      "##dir": 8860,
      "##iver": 8861,
      "##gear": 8862,
      "##pi": 8863,
      "##ро": 8864,
      "anun": 8865,
      "coat": 8866,
      "orm": 8867,
      "##ow64": 8868,
      "staging": 8869,
      "commit": 8870,
      "crc": 8871,
      "incons": 8872,
      "##elled": 8873,
      "disapp": 8874,
      "operand": 8875,
      "plcs": 8876,
      "impacts": 8877,
      "executives": 8878,
      "height": 8879,
      "123": 8880,
      "opc": 8881,
      "encrypting": 8882,
      "packaged": 8883,
      "macos": 8884,
      "transmission": 8885,
      "disconn": 8886,
      "##ooth": 8887,
      "originated": 8888,
      "teamviewer": 8889,
      "releasing": 8890,
      "esc": 8891,
      "occup": 8892,
      "airbus": 8893,
      "##345": 8894,
      "improved": 8895,
      "hotmail": 8896,
      "requirement": 8897,
      "telephone": 8898,
      "db2": 8899,
      "##imalware": 8900,
      "establishes": 8901,
      "forensics": 8902,
      "dealing": 8903,
      "pivot": 8904,
      "substantial": 8905,
      "kingdom": 8906,
      "coldfusion": 8907,
      "british": 8908,
      "extortion": 8909,
      "reputation": 8910,
      "simultaneously": 8911,
      "amazon": 8912,
      "tanks": 8913,
      "anunak": 8914,
      "012": 8915,
      "bomb": 8916,
      "d5": 8917,
      "ea": 8918,
      "giant": 8919,
      "hr": 8920,
      "tack": 8921,
      "v4": 8922,
      "##mb": 8923,
      "##bap": 8924,
      "##pages": 8925,
      "##asa": 8926,
      "##omen": 8927,
      "chun": 8928,
      "chose": 8929,
      "##beros": 8930,
      "expects": 8931,
      "webready": 8932,
      "traced": 8933,
      "##iously": 8934,
      "implications": 8935,
      "partially": 8936,
      "injecting": 8937,
      "downdel": 8938,
      "researchcenter": 8939,
      "advised": 8940,
      "seeks": 8941,
      "storing": 8942,
      "disclose": 8943,
      "kerberos": 8944,
      "profic": 8945,
      "finds": 8946,
      "authenticate": 8947,
      "student": 8948,
      "weekend": 8949,
      "##altonet": 8950,
      "scenarios": 8951,
      "dissidents": 8952,
      "lacks": 8953,
      "diagram": 8954,
      "demanding": 8955,
      "enumeration": 8956,
      "forwarding": 8957,
      "paloaltonet": 8958,
      "recognize": 8959,
      "circumstantial": 8960,
      "##tools": 8961,
      "deception": 8962,
      "thinking": 8963,
      "ahmed": 8964,
      "ethernet": 8965,
      "hospitals": 8966,
      "califor": 8967,
      "downdelph": 8968,
      "paloaltonetworks": 8969,
      "2f": 8970,
      "963": 8971,
      "bor": 8972,
      "bridge": 8973,
      "dj": 8974,
      "gpc": 8975,
      "nan": 8976,
      "nfs": 8977,
      "xtun": 8978,
      "##ole": 8979,
      "##a5": 8980,
      "##rum": 8981,
      "##core": 8982,
      "usr": 8983,
      "prove": 8984,
      "accident": 8985,
      "hasn": 8986,
      "##izard": 8987,
      "confusion": 8988,
      "perce": 8989,
      "thank": 8990,
      "communities": 8991,
      "openview": 8992,
      "indicative": 8993,
      "poland": 8994,
      "mining": 8995,
      "antimalware": 8996,
      "functionalities": 8997,
      "designated": 8998,
      "##itories": 8999,
      "tactical": 9000,
      "posed": 9001,
      "checksum": 9002,
      "representation": 9003,
      "evolving": 9004,
      "##bytes": 9005,
      "concluded": 9006,
      "requiring": 9007,
      "##library": 9008,
      "initiate": 9009,
      "initiated": 9010,
      "elsewhere": 9011,
      "electricity": 9012,
      "guardian": 9013,
      "repeatedly": 9014,
      "##module": 9015,
      "negoti": 9016,
      "islamic": 9017,
      "onedrive": 9018,
      "fashion": 9019,
      "nettraveler": 9020,
      "inconsist": 9021,
      "xtunnel": 9022,
      "bg": 9023,
      "e8": 9024,
      "fool": 9025,
      "gec": 9026,
      "kl": 9027,
      "odd": 9028,
      "ppt": 9029,
      "pcs": 9030,
      "sin": 9031,
      "ub": 9032,
      "yield": 9033,
      "##e7": 9034,
      "##c2": 9035,
      "##vd": 9036,
      "##wor": 9037,
      "##acity": 9038,
      "isp": 9039,
      "##ids": 9040,
      "##agle": 9041,
      "energ": 9042,
      "moves": 9043,
      "secur": 9044,
      "trump": 9045,
      "nete": 9046,
      "reporter": 9047,
      "plesk": 9048,
      "evasion": 9049,
      "##grab": 9050,
      "timeframe": 9051,
      "hostnames": 9052,
      "prevalent": 9053,
      "meterpr": 9054,
      "detailing": 9055,
      "generator": 9056,
      "highnoon": 9057,
      "pe32": 9058,
      "1364": 9059,
      "visits": 9060,
      "winrar": 9061,
      "transfers": 9062,
      "registering": 9063,
      "04506": 9064,
      "concaten": 9065,
      "standards": 9066,
      "turns": 9067,
      "periods": 9068,
      "planned": 9069,
      "broadcast": 9070,
      "jobs": 9071,
      "undis": 9072,
      "samsam": 9073,
      "division": 9074,
      "harvesting": 9075,
      "intruders": 9076,
      "gaza": 9077,
      "##encrypted": 9078,
      "assertion": 9079,
      "bodies": 9080,
      "meterpreter": 9081,
      "212": 9082,
      "93": 9083,
      "hint": 9084,
      "hmi": 9085,
      "mart": 9086,
      "rop": 9087,
      "##men": 9088,
      "##e8": 9089,
      "##c7": 9090,
      "##client": 9091,
      "##nl": 9092,
      "##kr": 9093,
      "##win": 9094,
      "##itz": 9095,
      "##ald": 9096,
      "##ower": 9097,
      "stteam": 9098,
      "##agany": 9099,
      "unre": 9100,
      "compl": 9101,
      "##andy": 9102,
      "tricks": 9103,
      "datas": 9104,
      "abun": 9105,
      "willing": 9106,
      "perfect": 9107,
      "##rators": 9108,
      "mah": 9109,
      "originate": 9110,
      "underlying": 9111,
      "tasking": 9112,
      "gray": 9113,
      "conven": 9114,
      "depends": 9115,
      "universities": 9116,
      "matched": 9117,
      "##beat": 9118,
      "ecd": 9119,
      "annex": 9120,
      "learning": 9121,
      "labs™": 9122,
      "reflection": 9123,
      "continuous": 9124,
      "constructed": 9125,
      "dozen": 9126,
      "tomcat": 9127,
      "##help": 9128,
      "karagany": 9129,
      "pixel": 9130,
      "illegal": 9131,
      "sakula": 9132,
      "asymmetric": 9133,
      "sunday": 9134,
      "gecko": 9135,
      "ae": 9136,
      "au": 9137,
      "a60": 9138,
      "biz": 9139,
      "bidd": 9140,
      "dust": 9141,
      "divid": 9142,
      "e4": 9143,
      "rank": 9144,
      "snow": 9145,
      "vent": 9146,
      "youn": 9147,
      "##oop": 9148,
      "##c1": 9149,
      "##6a": 9150,
      "##xic": 9151,
      "##korm": 9152,
      "##wart": 9153,
      "inher": 9154,
      "##ecy": 9155,
      "##ecode": 9156,
      "usenix": 9157,
      "##ches": 9158,
      "composed": 9159,
      "spies": 9160,
      "sudo": 9161,
      "servic": 9162,
      "##orting": 9163,
      "##sour": 9164,
      "##ugg": 9165,
      "expans": 9166,
      "net4": 9167,
      "upcoming": 9168,
      "prikorm": 9169,
      "partition": 9170,
      "remember": 9171,
      "tex": 9172,
      "twice": 9173,
      "creator": 9174,
      "infamous": 9175,
      "activist": 9176,
      "passing": 9177,
      "marks": 9178,
      "polish": 9179,
      "freely": 9180,
      "2710": 9181,
      "probable": 9182,
      "peopletools": 9183,
      "triggering": 9184,
      "printers": 9185,
      "torrent": 9186,
      "translates": 9187,
      "taiwanese": 9188,
      "mrx": 9189,
      "recognized": 9190,
      "holid": 9191,
      "impersonate": 9192,
      "observation": 9193,
      "rarely": 9194,
      "roles": 9195,
      "supposedly": 9196,
      "pupp": 9197,
      "headquarters": 9198,
      "olympic": 9199,
      "merely": 9200,
      "sinkholed": 9201,
      "elderwood": 9202,
      "vertical": 9203,
      "etso": 9204,
      "prikormka": 9205,
      "4f": 9206,
      "597": 9207,
      "bog": 9208,
      "c9": 9209,
      "dated": 9210,
      "gat": 9211,
      "gone": 9212,
      "hkey": 9213,
      "ku": 9214,
      "lights": 9215,
      "rce": 9216,
      "td": 9217,
      "xe": 9218,
      "##uff": 9219,
      "##hib": 9220,
      "##bis": 9221,
      "##dog": 9222,
      "##za": 9223,
      "##inate": 9224,
      "be3": 9225,
      "congress": 9226,
      "isc": 9227,
      "isac": 9228,
      "whom": 9229,
      "##iring": 9230,
      "ended": 9231,
      "crl": 9232,
      "interval": 9233,
      "lee": 9234,
      "emir": 9235,
      "strain": 9236,
      "116": 9237,
      "##osing": 9238,
      "printer": 9239,
      "deny": 9240,
      "wins": 9241,
      "origins": 9242,
      "resourced": 9243,
      "socially": 9244,
      "banner": 9245,
      "knowing": 9246,
      "##profile": 9247,
      "##azine": 9248,
      "elections": 9249,
      "accepts": 9250,
      "natural": 9251,
      "considerable": 9252,
      "represented": 9253,
      "dropbox": 9254,
      "examination": 9255,
      "##ffici": 9256,
      "calculated": 9257,
      "binder": 9258,
      "proofpoint": 9259,
      "selling": 9260,
      "mirage": 9261,
      "exha": 9262,
      "speakers": 9263,
      "leadership": 9264,
      "quartermaster": 9265,
      "facilitate": 9266,
      "kyiv": 9267,
      "doctr": 9268,
      "hacktivist": 9269,
      "diverse": 9270,
      "censorship": 9271,
      "instrument": 9272,
      "silverlight": 9273,
      "plausible": 9274,
      "criteria": 9275,
      "california": 9276,
      "abunasar": 9277,
      "bidding": 9278,
      "puppet": 9279,
      "gathers": 9280,
      "600": 9281,
      "bh": 9282,
      "dn": 9283,
      "fon": 9284,
      "sword": 9285,
      "##e9": 9286,
      "##cm": 9287,
      "##cube": 9288,
      "##ytes": 9289,
      "##100": 9290,
      "thor": 9291,
      "##atar": 9292,
      "##iles": 9293,
      "##ford": 9294,
      "compare": 9295,
      "notor": 9296,
      "acting": 9297,
      "1012": 9298,
      "##thread": 9299,
      "##codes": 9300,
      "avast": 9301,
      "submission": 9302,
      "formation": 9303,
      "loadlibrary": 9304,
      "sensors": 9305,
      "##sauron": 9306,
      "pointers": 9307,
      "locale": 9308,
      "estimate": 9309,
      "justice": 9310,
      "authorization": 9311,
      "snap": 9312,
      "projectsauron": 9313,
      "characterized": 9314,
      "putting": 9315,
      "overlapping": 9316,
      "satter": 9317,
      "backups": 9318,
      "sshdoor": 9319,
      "terminated": 9320,
      "camer": 9321,
      "aims": 9322,
      "samba": 9323,
      "crooks": 9324,
      "##break": 9325,
      "conventional": 9326,
      "mongodb": 9327,
      "##packet": 9328,
      "4127": 9329,
      "a4": 9330,
      "d8": 9331,
      "dent": 9332,
      "##cer": 9333,
      "##hr": 9334,
      "##ping": 9335,
      "##etooth": 9336,
      "##erst": 9337,
      "refus": 9338,
      "##riot": 9339,
      "##elle": 9340,
      "##agger": 9341,
      "##email": 9342,
      "shop": 9343,
      "##berp": 9344,
      "trail": 9345,
      "interrupt": 9346,
      "##spot": 9347,
      "confident": 9348,
      "##network": 9349,
[...]
